{
  "version": "1.0",
  "truncation": null,
  "padding": null,
  "added_tokens": [
    {
      "id": 0,
      "special": true,
      "content": "<pad>",
      "single_word": false,
      "lstrip": false,
      "rstrip": false,
      "normalized": false
    },
    {
      "id": 1,
      "special": true,
      "content": "<s>",
      "single_word": false,
      "lstrip": false,
      "rstrip": false,
      "normalized": false
    },
    {
      "id": 2,
      "special": true,
      "content": "</s>",
      "single_word": false,
      "lstrip": false,
      "rstrip": false,
      "normalized": false
    },
    {
      "id": 3,
      "special": true,
      "content": "<unk>",
      "single_word": false,
      "lstrip": false,
      "rstrip": false,
      "normalized": false
    },
    {
      "id": 4,
      "special": true,
      "content": "<mask>",
      "single_word": false,
      "lstrip": false,
      "rstrip": false,
      "normalized": false
    },
    {
      "id": 5,
      "special": true,
      "content": "ternary_expression",
      "single_word": false,
      "lstrip": false,
      "rstrip": false,
      "normalized": false
    },
    {
      "id": 6,
      "special": true,
      "content": "template_substitution",
      "single_word": false,
      "lstrip": false,
      "rstrip": false,
      "normalized": false
    },
    {
      "id": 7,
      "special": true,
      "content": "jsx_namespace_name",
      "single_word": false,
      "lstrip": false,
      "rstrip": false,
      "normalized": false
    },
    {
      "id": 8,
      "special": true,
      "content": "spread_element",
      "single_word": false,
      "lstrip": false,
      "rstrip": false,
      "normalized": false
    },
    {
      "id": 9,
      "special": true,
      "content": "labeled_statement",
      "single_word": false,
      "lstrip": false,
      "rstrip": false,
      "normalized": false
    },
    {
      "id": 10,
      "special": true,
      "content": "jsx_fragment",
      "single_word": false,
      "lstrip": false,
      "rstrip": false,
      "normalized": false
    },
    {
      "id": 11,
      "special": true,
      "content": "program",
      "single_word": false,
      "lstrip": false,
      "rstrip": false,
      "normalized": false
    },
    {
      "id": 12,
      "special": true,
      "content": "with_statement",
      "single_word": false,
      "lstrip": false,
      "rstrip": false,
      "normalized": false
    },
    {
      "id": 13,
      "special": true,
      "content": "string",
      "single_word": false,
      "lstrip": false,
      "rstrip": false,
      "normalized": false
    },
    {
      "id": 14,
      "special": true,
      "content": "rest_pattern",
      "single_word": false,
      "lstrip": false,
      "rstrip": false,
      "normalized": false
    },
    {
      "id": 15,
      "special": true,
      "content": "import_statement",
      "single_word": false,
      "lstrip": false,
      "rstrip": false,
      "normalized": false
    },
    {
      "id": 16,
      "special": true,
      "content": "switch_statement",
      "single_word": false,
      "lstrip": false,
      "rstrip": false,
      "normalized": false
    },
    {
      "id": 17,
      "special": true,
      "content": "statement_block",
      "single_word": false,
      "lstrip": false,
      "rstrip": false,
      "normalized": false
    },
    {
      "id": 18,
      "special": true,
      "content": "try_statement",
      "single_word": false,
      "lstrip": false,
      "rstrip": false,
      "normalized": false
    },
    {
      "id": 19,
      "special": true,
      "content": "do_statement",
      "single_word": false,
      "lstrip": false,
      "rstrip": false,
      "normalized": false
    },
    {
      "id": 20,
      "special": true,
      "content": "regex",
      "single_word": false,
      "lstrip": false,
      "rstrip": false,
      "normalized": false
    },
    {
      "id": 21,
      "special": true,
      "content": "switch_body",
      "single_word": false,
      "lstrip": false,
      "rstrip": false,
      "normalized": false
    },
    {
      "id": 22,
      "special": true,
      "content": "switch_default",
      "single_word": false,
      "lstrip": false,
      "rstrip": false,
      "normalized": false
    },
    {
      "id": 23,
      "special": true,
      "content": "meta_property",
      "single_word": false,
      "lstrip": false,
      "rstrip": false,
      "normalized": false
    },
    {
      "id": 24,
      "special": true,
      "content": "import_clause",
      "single_word": false,
      "lstrip": false,
      "rstrip": false,
      "normalized": false
    },
    {
      "id": 25,
      "special": true,
      "content": "break_statement",
      "single_word": false,
      "lstrip": false,
      "rstrip": false,
      "normalized": false
    },
    {
      "id": 26,
      "special": true,
      "content": "arguments",
      "single_word": false,
      "lstrip": false,
      "rstrip": false,
      "normalized": false
    },
    {
      "id": 27,
      "special": true,
      "content": "for_in_statement",
      "single_word": false,
      "lstrip": false,
      "rstrip": false,
      "normalized": false
    },
    {
      "id": 28,
      "special": true,
      "content": "decorator",
      "single_word": false,
      "lstrip": false,
      "rstrip": false,
      "normalized": false
    },
    {
      "id": 29,
      "special": true,
      "content": "subscript_expression",
      "single_word": false,
      "lstrip": false,
      "rstrip": false,
      "normalized": false
    },
    {
      "id": 30,
      "special": true,
      "content": "new_expression",
      "single_word": false,
      "lstrip": false,
      "rstrip": false,
      "normalized": false
    },
    {
      "id": 31,
      "special": true,
      "content": "catch_clause",
      "single_word": false,
      "lstrip": false,
      "rstrip": false,
      "normalized": false
    },
    {
      "id": 32,
      "special": true,
      "content": "object_assignment_pattern",
      "single_word": false,
      "lstrip": false,
      "rstrip": false,
      "normalized": false
    },
    {
      "id": 33,
      "special": true,
      "content": "arrow_function",
      "single_word": false,
      "lstrip": false,
      "rstrip": false,
      "normalized": false
    },
    {
      "id": 34,
      "special": true,
      "content": "while_statement",
      "single_word": false,
      "lstrip": false,
      "rstrip": false,
      "normalized": false
    },
    {
      "id": 35,
      "special": true,
      "content": "expression_statement",
      "single_word": false,
      "lstrip": false,
      "rstrip": false,
      "normalized": false
    },
    {
      "id": 36,
      "special": true,
      "content": "variable_declarator",
      "single_word": false,
      "lstrip": false,
      "rstrip": false,
      "normalized": false
    },
    {
      "id": 37,
      "special": true,
      "content": "function",
      "single_word": false,
      "lstrip": false,
      "rstrip": false,
      "normalized": false
    },
    {
      "id": 38,
      "special": true,
      "content": "nested_identifier",
      "single_word": false,
      "lstrip": false,
      "rstrip": false,
      "normalized": false
    },
    {
      "id": 39,
      "special": true,
      "content": "sequence_expression",
      "single_word": false,
      "lstrip": false,
      "rstrip": false,
      "normalized": false
    },
    {
      "id": 40,
      "special": true,
      "content": "unary_expression",
      "single_word": false,
      "lstrip": false,
      "rstrip": false,
      "normalized": false
    },
    {
      "id": 41,
      "special": true,
      "content": "template_string",
      "single_word": false,
      "lstrip": false,
      "rstrip": false,
      "normalized": false
    },
    {
      "id": 42,
      "special": true,
      "content": "jsx_element",
      "single_word": false,
      "lstrip": false,
      "rstrip": false,
      "normalized": false
    },
    {
      "id": 43,
      "special": true,
      "content": "finally_clause",
      "single_word": false,
      "lstrip": false,
      "rstrip": false,
      "normalized": false
    },
    {
      "id": 44,
      "special": true,
      "content": "jsx_closing_element",
      "single_word": false,
      "lstrip": false,
      "rstrip": false,
      "normalized": false
    },
    {
      "id": 45,
      "special": true,
      "content": "named_imports",
      "single_word": false,
      "lstrip": false,
      "rstrip": false,
      "normalized": false
    },
    {
      "id": 46,
      "special": true,
      "content": "generator_function",
      "single_word": false,
      "lstrip": false,
      "rstrip": false,
      "normalized": false
    },
    {
      "id": 47,
      "special": true,
      "content": "else_clause",
      "single_word": false,
      "lstrip": false,
      "rstrip": false,
      "normalized": false
    },
    {
      "id": 48,
      "special": true,
      "content": "throw_statement",
      "single_word": false,
      "lstrip": false,
      "rstrip": false,
      "normalized": false
    },
    {
      "id": 49,
      "special": true,
      "content": "computed_property_name",
      "single_word": false,
      "lstrip": false,
      "rstrip": false,
      "normalized": false
    },
    {
      "id": 50,
      "special": true,
      "content": "formal_parameters",
      "single_word": false,
      "lstrip": false,
      "rstrip": false,
      "normalized": false
    },
    {
      "id": 51,
      "special": true,
      "content": "class",
      "single_word": false,
      "lstrip": false,
      "rstrip": false,
      "normalized": false
    },
    {
      "id": 52,
      "special": true,
      "content": "member_expression",
      "single_word": false,
      "lstrip": false,
      "rstrip": false,
      "normalized": false
    },
    {
      "id": 53,
      "special": true,
      "content": "assignment_expression",
      "single_word": false,
      "lstrip": false,
      "rstrip": false,
      "normalized": false
    },
    {
      "id": 54,
      "special": true,
      "content": "binary_expression",
      "single_word": false,
      "lstrip": false,
      "rstrip": false,
      "normalized": false
    },
    {
      "id": 55,
      "special": true,
      "content": "lexical_declaration",
      "single_word": false,
      "lstrip": false,
      "rstrip": false,
      "normalized": false
    },
    {
      "id": 56,
      "special": true,
      "content": "yield_expression",
      "single_word": false,
      "lstrip": false,
      "rstrip": false,
      "normalized": false
    },
    {
      "id": 57,
      "special": true,
      "content": "generator_function_declaration",
      "single_word": false,
      "lstrip": false,
      "rstrip": false,
      "normalized": false
    },
    {
      "id": 58,
      "special": true,
      "content": "call_expression",
      "single_word": false,
      "lstrip": false,
      "rstrip": false,
      "normalized": false
    },
    {
      "id": 59,
      "special": true,
      "content": "array",
      "single_word": false,
      "lstrip": false,
      "rstrip": false,
      "normalized": false
    },
    {
      "id": 60,
      "special": true,
      "content": "function_declaration",
      "single_word": false,
      "lstrip": false,
      "rstrip": false,
      "normalized": false
    },
    {
      "id": 61,
      "special": true,
      "content": "array_pattern",
      "single_word": false,
      "lstrip": false,
      "rstrip": false,
      "normalized": false
    },
    {
      "id": 62,
      "special": true,
      "content": "continue_statement",
      "single_word": false,
      "lstrip": false,
      "rstrip": false,
      "normalized": false
    },
    {
      "id": 63,
      "special": true,
      "content": "method_definition",
      "single_word": false,
      "lstrip": false,
      "rstrip": false,
      "normalized": false
    },
    {
      "id": 64,
      "special": true,
      "content": "import",
      "single_word": false,
      "lstrip": false,
      "rstrip": false,
      "normalized": false
    },
    {
      "id": 65,
      "special": true,
      "content": "object_pattern",
      "single_word": false,
      "lstrip": false,
      "rstrip": false,
      "normalized": false
    },
    {
      "id": 66,
      "special": true,
      "content": "empty_statement",
      "single_word": false,
      "lstrip": false,
      "rstrip": false,
      "normalized": false
    },
    {
      "id": 67,
      "special": true,
      "content": "for_statement",
      "single_word": false,
      "lstrip": false,
      "rstrip": false,
      "normalized": false
    },
    {
      "id": 68,
      "special": true,
      "content": "switch_case",
      "single_word": false,
      "lstrip": false,
      "rstrip": false,
      "normalized": false
    },
    {
      "id": 69,
      "special": true,
      "content": "parenthesized_expression",
      "single_word": false,
      "lstrip": false,
      "rstrip": false,
      "normalized": false
    },
    {
      "id": 70,
      "special": true,
      "content": "return_statement",
      "single_word": false,
      "lstrip": false,
      "rstrip": false,
      "normalized": false
    },
    {
      "id": 71,
      "special": true,
      "content": "class_declaration",
      "single_word": false,
      "lstrip": false,
      "rstrip": false,
      "normalized": false
    },
    {
      "id": 72,
      "special": true,
      "content": "debugger_statement",
      "single_word": false,
      "lstrip": false,
      "rstrip": false,
      "normalized": false
    },
    {
      "id": 73,
      "special": true,
      "content": "jsx_opening_element",
      "single_word": false,
      "lstrip": false,
      "rstrip": false,
      "normalized": false
    },
    {
      "id": 74,
      "special": true,
      "content": "ERROR",
      "single_word": false,
      "lstrip": false,
      "rstrip": false,
      "normalized": false
    },
    {
      "id": 75,
      "special": true,
      "content": "variable_declaration",
      "single_word": false,
      "lstrip": false,
      "rstrip": false,
      "normalized": false
    },
    {
      "id": 76,
      "special": true,
      "content": "augmented_assignment_expression",
      "single_word": false,
      "lstrip": false,
      "rstrip": false,
      "normalized": false
    },
    {
      "id": 77,
      "special": true,
      "content": "assignment_pattern",
      "single_word": false,
      "lstrip": false,
      "rstrip": false,
      "normalized": false
    },
    {
      "id": 78,
      "special": true,
      "content": "object",
      "single_word": false,
      "lstrip": false,
      "rstrip": false,
      "normalized": false
    },
    {
      "id": 79,
      "special": true,
      "content": "class_body",
      "single_word": false,
      "lstrip": false,
      "rstrip": false,
      "normalized": false
    },
    {
      "id": 80,
      "special": true,
      "content": "jsx_self_closing_element",
      "single_word": false,
      "lstrip": false,
      "rstrip": false,
      "normalized": false
    },
    {
      "id": 81,
      "special": true,
      "content": "pair",
      "single_word": false,
      "lstrip": false,
      "rstrip": false,
      "normalized": false
    },
    {
      "id": 82,
      "special": true,
      "content": "update_expression",
      "single_word": false,
      "lstrip": false,
      "rstrip": false,
      "normalized": false
    },
    {
      "id": 83,
      "special": true,
      "content": "field_definition",
      "single_word": false,
      "lstrip": false,
      "rstrip": false,
      "normalized": false
    },
    {
      "id": 84,
      "special": true,
      "content": "await_expression",
      "single_word": false,
      "lstrip": false,
      "rstrip": false,
      "normalized": false
    },
    {
      "id": 85,
      "special": true,
      "content": "pair_pattern",
      "single_word": false,
      "lstrip": false,
      "rstrip": false,
      "normalized": false
    },
    {
      "id": 86,
      "special": true,
      "content": "jsx_expression",
      "single_word": false,
      "lstrip": false,
      "rstrip": false,
      "normalized": false
    },
    {
      "id": 87,
      "special": true,
      "content": "if_statement",
      "single_word": false,
      "lstrip": false,
      "rstrip": false,
      "normalized": false
    },
    {
      "id": 88,
      "special": true,
      "content": "class_heritage",
      "single_word": false,
      "lstrip": false,
      "rstrip": false,
      "normalized": false
    },
    {
      "id": 89,
      "special": true,
      "content": "jsx_attribute",
      "single_word": false,
      "lstrip": false,
      "rstrip": false,
      "normalized": false
    }
  ],
  "normalizer": null,
  "pre_tokenizer": {
    "type": "ByteLevel",
    "add_prefix_space": true,
    "trim_offsets": true
  },
  "post_processor": {
    "type": "ByteLevel",
    "add_prefix_space": true,
    "trim_offsets": false
  },
  "decoder": {
    "type": "ByteLevel",
    "add_prefix_space": true,
    "trim_offsets": true
  },
  "model": {
    "type": "BPE",
    "dropout": null,
    "unk_token": null,
    "continuing_subword_prefix": null,
    "end_of_word_suffix": null,
    "fuse_unk": false,
    "vocab": {
      "<pad>": 0,
      "<s>": 1,
      "</s>": 2,
      "<unk>": 3,
      "<mask>": 4,
      "ternary_expression": 5,
      "template_substitution": 6,
      "jsx_namespace_name": 7,
      "spread_element": 8,
      "labeled_statement": 9,
      "jsx_fragment": 10,
      "program": 11,
      "with_statement": 12,
      "string": 13,
      "rest_pattern": 14,
      "import_statement": 15,
      "switch_statement": 16,
      "statement_block": 17,
      "try_statement": 18,
      "do_statement": 19,
      "regex": 20,
      "switch_body": 21,
      "switch_default": 22,
      "meta_property": 23,
      "import_clause": 24,
      "break_statement": 25,
      "arguments": 26,
      "for_in_statement": 27,
      "decorator": 28,
      "subscript_expression": 29,
      "new_expression": 30,
      "catch_clause": 31,
      "object_assignment_pattern": 32,
      "arrow_function": 33,
      "while_statement": 34,
      "expression_statement": 35,
      "variable_declarator": 36,
      "function": 37,
      "nested_identifier": 38,
      "sequence_expression": 39,
      "unary_expression": 40,
      "template_string": 41,
      "jsx_element": 42,
      "finally_clause": 43,
      "jsx_closing_element": 44,
      "named_imports": 45,
      "generator_function": 46,
      "else_clause": 47,
      "throw_statement": 48,
      "computed_property_name": 49,
      "formal_parameters": 50,
      "class": 51,
      "member_expression": 52,
      "assignment_expression": 53,
      "binary_expression": 54,
      "lexical_declaration": 55,
      "yield_expression": 56,
      "generator_function_declaration": 57,
      "call_expression": 58,
      "array": 59,
      "function_declaration": 60,
      "array_pattern": 61,
      "continue_statement": 62,
      "method_definition": 63,
      "import": 64,
      "object_pattern": 65,
      "empty_statement": 66,
      "for_statement": 67,
      "switch_case": 68,
      "parenthesized_expression": 69,
      "return_statement": 70,
      "class_declaration": 71,
      "debugger_statement": 72,
      "jsx_opening_element": 73,
      "ERROR": 74,
      "variable_declaration": 75,
      "augmented_assignment_expression": 76,
      "assignment_pattern": 77,
      "object": 78,
      "class_body": 79,
      "jsx_self_closing_element": 80,
      "pair": 81,
      "update_expression": 82,
      "field_definition": 83,
      "await_expression": 84,
      "pair_pattern": 85,
      "jsx_expression": 86,
      "if_statement": 87,
      "class_heritage": 88,
      "jsx_attribute": 89,
      "!": 90,
      "\"": 91,
      "#": 92,
      "$": 93,
      "%": 94,
      "&": 95,
      "'": 96,
      "(": 97,
      ")": 98,
      "*": 99,
      "+": 100,
      ",": 101,
      "-": 102,
      ".": 103,
      "/": 104,
      "0": 105,
      "1": 106,
      "2": 107,
      "3": 108,
      "4": 109,
      "5": 110,
      "6": 111,
      "7": 112,
      "8": 113,
      "9": 114,
      ":": 115,
      ";": 116,
      "<": 117,
      "=": 118,
      ">": 119,
      "?": 120,
      "@": 121,
      "A": 122,
      "B": 123,
      "C": 124,
      "D": 125,
      "E": 126,
      "F": 127,
      "G": 128,
      "H": 129,
      "I": 130,
      "J": 131,
      "K": 132,
      "L": 133,
      "M": 134,
      "N": 135,
      "O": 136,
      "P": 137,
      "Q": 138,
      "R": 139,
      "S": 140,
      "T": 141,
      "U": 142,
      "V": 143,
      "W": 144,
      "X": 145,
      "Y": 146,
      "Z": 147,
      "[": 148,
      "\\": 149,
      "]": 150,
      "^": 151,
      "_": 152,
      "`": 153,
      "a": 154,
      "b": 155,
      "c": 156,
      "d": 157,
      "e": 158,
      "f": 159,
      "g": 160,
      "h": 161,
      "i": 162,
      "j": 163,
      "k": 164,
      "l": 165,
      "m": 166,
      "n": 167,
      "o": 168,
      "p": 169,
      "q": 170,
      "r": 171,
      "s": 172,
      "t": 173,
      "u": 174,
      "v": 175,
      "w": 176,
      "x": 177,
      "y": 178,
      "z": 179,
      "{": 180,
      "|": 181,
      "}": 182,
      "~": 183,
      "¡": 184,
      "¢": 185,
      "£": 186,
      "¤": 187,
      "¥": 188,
      "¦": 189,
      "§": 190,
      "¨": 191,
      "©": 192,
      "ª": 193,
      "«": 194,
      "¬": 195,
      "®": 196,
      "¯": 197,
      "°": 198,
      "±": 199,
      "²": 200,
      "³": 201,
      "´": 202,
      "µ": 203,
      "¶": 204,
      "·": 205,
      "¸": 206,
      "¹": 207,
      "º": 208,
      "»": 209,
      "¼": 210,
      "½": 211,
      "¾": 212,
      "¿": 213,
      "Â": 214,
      "Ã": 215,
      "Ä": 216,
      "Å": 217,
      "Æ": 218,
      "Ç": 219,
      "È": 220,
      "É": 221,
      "Ê": 222,
      "Ë": 223,
      "Ì": 224,
      "Í": 225,
      "Î": 226,
      "Ï": 227,
      "Ð": 228,
      "Ñ": 229,
      "Ò": 230,
      "Ó": 231,
      "Ô": 232,
      "Õ": 233,
      "Ö": 234,
      "×": 235,
      "Ø": 236,
      "Ù": 237,
      "Ú": 238,
      "Û": 239,
      "Ý": 240,
      "Þ": 241,
      "à": 242,
      "á": 243,
      "â": 244,
      "ã": 245,
      "ä": 246,
      "å": 247,
      "æ": 248,
      "ç": 249,
      "è": 250,
      "é": 251,
      "ê": 252,
      "ë": 253,
      "ì": 254,
      "í": 255,
      "î": 256,
      "ï": 257,
      "ð": 258,
      "ă": 259,
      "Ą": 260,
      "Ĉ": 261,
      "ĉ": 262,
      "Č": 263,
      "č": 264,
      "ė": 265,
      "ě": 266,
      "ğ": 267,
      "Ġ": 268,
      "ġ": 269,
      "Ģ": 270,
      "ģ": 271,
      "Ĥ": 272,
      "ĥ": 273,
      "Ħ": 274,
      "ħ": 275,
      "Ĩ": 276,
      "ĩ": 277,
      "Ī": 278,
      "ī": 279,
      "Ĭ": 280,
      "ĭ": 281,
      "Į": 282,
      "į": 283,
      "İ": 284,
      "ı": 285,
      "Ĳ": 286,
      "ĳ": 287,
      "Ĵ": 288,
      "ĵ": 289,
      "Ķ": 290,
      "ķ": 291,
      "ĸ": 292,
      "Ĺ": 293,
      "ĺ": 294,
      "Ļ": 295,
      "ļ": 296,
      "Ľ": 297,
      "ľ": 298,
      "Ŀ": 299,
      "ŀ": 300,
      "Ł": 301,
      "ł": 302,
      "Ń": 303,
      "in": 304,
      "Ġ(": 305,
      "Ġ)": 306,
      "de": 307,
      "st": 308,
      "se": 309,
      "Ġ.": 310,
      "co": 311,
      "re": 312,
      "on": 313,
      "at": 314,
      "Ġ,": 315,
      "en": 316,
      "Ġco": 317,
      "Ġ=": 318,
      "ti": 319,
      "er": 320,
      "Ġ$": 321,
      "ar": 322,
      "ing": 323,
      "Ġp": 324,
      "to": 325,
      "al": 326,
      "Ġ;": 327,
      "Ġf": 328,
      "Ġcode": 329,
      "Ġd": 330,
      "Ġre": 331,
      "or": 332,
      "ring": 333,
      "th": 334,
      "ur": 335,
      "Ġi": 336,
      "Ġa": 337,
      "me": 338,
      "Ġ{": 339,
      "Ġ}": 340,
      "Ġ:": 341,
      "le": 342,
      "tion": 343,
      "an": 344,
      "oc": 345,
      "Ġs": 346,
      "un": 347,
      "Ġn": 348,
      "Ġ'": 349,
      "Ġin": 350,
      "ame": 351,
      "ge": 352,
      "ch": 353,
      "use": 354,
      "Ġb": 355,
      "Ġ>": 356,
      "ĠĠ": 357,
      "Ġl": 358,
      "dex": 359,
      "ken": 360,
      "Ġ-": 361,
      "il": 362,
      "token": 363,
      "Ġdoc": 364,
      "ce": 365,
      "tokens": 366,
      "Ġdocstring": 367,
      "te": 368,
      "Ġ[": 369,
      "id": 370,
      "Ġ]": 371,
      "Ġif": 372,
      "Ġth": 373,
      "unc": 374,
      "ig": 375,
      "ro": 376,
      "is": 377,
      "Ġc": 378,
      "Ġfunc": 379,
      "Ġ_": 380,
      "Ġse": 381,
      "ue": 382,
      "urn": 383,
      "turn": 384,
      "Ġe": 385,
      "ath": 386,
      "Ġreturn": 387,
      "Ġ\"": 388,
      "ase": 389,
      "get": 390,
      "name": 391,
      "ent": 392,
      "ate": 393,
      "Ġpar": 394,
      "ha": 395,
      "Ġo": 396,
      "ss": 397,
      "po": 398,
      "ul": 399,
      "Ġor": 400,
      "Ġget": 401,
      "ion": 402,
      "inal": 403,
      "Ġt": 404,
      "code": 405,
      "ild": 406,
      "Ġbu": 407,
      "Ġpath": 408,
      "url": 409,
      "ast": 410,
      "ic": 411,
      "Ġm": 412,
      "Ġv": 413,
      "pe": 414,
      "Ġindex": 415,
      "ang": 416,
      "arch": 417,
      "base": 418,
      "Ġurl": 419,
      "Ġthe": 420,
      "index": 421,
      "Ġbuild": 422,
      "ĠS": 423,
      "Ġsha": 424,
      "ra": 425,
      "Ġorig": 426,
      "fg": 427,
      "Ġparti": 428,
      "search": 429,
      "Ġrepo": 430,
      "Ġlang": 431,
      "Ġoriginal": 432,
      "Ġast": 433,
      "ri": 434,
      "Ġpartition": 435,
      "Ġdfg": 436,
      "Re": 437,
      "ut": 438,
      "ĠĠĠĠ": 439,
      "ter": 440,
      "this": 441,
      "ec": 442,
      "Ġw": 443,
      "lf": 444,
      "ew": 445,
      "Ġde": 446,
      "Ġself": 447,
      "mp": 448,
      "Ġst": 449,
      "ub": 450,
      "ist": 451,
      "alue": 452,
      "Ġis": 453,
      "ation": 454,
      "ption": 455,
      "la": 456,
      "nt": 457,
      "ype": 458,
      "ĠC": 459,
      "el": 460,
      "et": 461,
      "Ġfor": 462,
      "err": 463,
      "ile": 464,
      "it": 465,
      "In": 466,
      "ata": 467,
      "Ġ0": 468,
      "xt": 469,
      "um": 470,
      "Ġ!": 471,
      "age": 472,
      "Ġerr": 473,
      "ode": 474,
      "Ġto": 475,
      "Ġ+": 476,
      "Ġnew": 477,
      "ed": 478,
      "ot": 479,
      "ey": 480,
      "ac": 481,
      "ab": 482,
      "Ġ<": 483,
      "ĠT": 484,
      "Ġ*": 485,
      "lic": 486,
      "ad": 487,
      "der": 488,
      "Ġ1": 489,
      "es": 490,
      "up": 491,
      "ull": 492,
      "Ġ==": 493,
      "lo": 494,
      "ol": 495,
      "ult": 496,
      "ĠN": 497,
      "am": 498,
      "Ġan": 499,
      "od": 500,
      "Ġfunction": 501,
      "Ġcon": 502,
      "able": 503,
      "Ġar": 504,
      "Ġh": 505,
      "ĠA": 506,
      "Ex": 507,
      "Ġres": 508,
      "ap": 509,
      "ry": 510,
      "ray": 511,
      "Ġg": 512,
      "que": 513,
      "Ġel": 514,
      "end": 515,
      "ver": 516,
      "ment": 517,
      "Name": 518,
      "all": 519,
      "tring": 520,
      "ublic": 521,
      "Ġk": 522,
      "ect": 523,
      "Ġnull": 524,
      "Ġdef": 525,
      "Con": 526,
      "bj": 527,
      "ĠP": 528,
      "Ġpublic": 529,
      "Ġr": 530,
      "vi": 531,
      "Ġset": 532,
      "quest": 533,
      "per": 534,
      "ĠD": 535,
      "dd": 536,
      "iz": 537,
      "Ġelse": 538,
      "Ġex": 539,
      "fig": 540,
      "Ġ&": 541,
      "--": 542,
      "ve": 543,
      "ception": 544,
      "Ġof": 545,
      "Ġthis": 546,
      "lass": 547,
      "put": 548,
      "as": 549,
      "and": 550,
      "li": 551,
      "Ġ/": 552,
      "Ġ!=": 553,
      "fi": 554,
      "ts": 555,
      "ty": 556,
      "ĠRe": 557,
      "qu": 558,
      "Ġvalue": 559,
      "Ġpro": 560,
      "ĠF": 561,
      "text": 562,
      "ĠI": 563,
      "one": 564,
      "ĠM": 565,
      "us": 566,
      "eld": 567,
      "our": 568,
      "row": 569,
      "Ġme": 570,
      "og": 571,
      "Exception": 572,
      "ĠL": 573,
      "bject": 574,
      "ĠString": 575,
      "Ġnil": 576,
      "pp": 577,
      "ĠE": 578,
      "rr": 579,
      "ach": 580,
      "Ġ=>": 581,
      "atch": 582,
      "Ġch": 583,
      "ted": 584,
      "res": 585,
      "gs": 586,
      "ĠĠĠĠĠĠĠĠ": 587,
      "ource": 588,
      "ith": 589,
      "int": 590,
      "ance": 591,
      "bu": 592,
      "ack": 593,
      "Ġname": 594,
      "ser": 595,
      "set": 596,
      "Ġtr": 597,
      "ct": 598,
      "Ġand": 599,
      "St": 600,
      "con": 601,
      "Type": 602,
      "orm": 603,
      "ĠO": 604,
      "alse": 605,
      "Ġarray": 606,
      "Ġadd": 607,
      "di": 608,
      "Ġnot": 609,
      "Ġstring": 610,
      "Ġas": 611,
      "rom": 612,
      "ĠG": 613,
      "Ġj": 614,
      "pon": 615,
      "om": 616,
      "rent": 617,
      "Ġdata": 618,
      "ers": 619,
      "Ġint": 620,
      "fo": 621,
      "reate": 622,
      "ag": 623,
      "rror": 624,
      "ow": 625,
      "ize": 626,
      "time": 627,
      "ain": 628,
      "Id": 629,
      "ield": 630,
      "tt": 631,
      "ort": 632,
      "Ġkey": 633,
      "par": 634,
      "ine": 635,
      "Ġlen": 636,
      "Ġapp": 637,
      "ponse": 638,
      "alid": 639,
      "if": 640,
      "Ġerror": 641,
      "he": 642,
      "ptions": 643,
      "Value": 644,
      "ess": 645,
      "Ġbe": 646,
      "ction": 647,
      "stance": 648,
      "ock": 649,
      "thod": 650,
      "Ġ@": 651,
      "ader": 652,
      "tem": 653,
      "sh": 654,
      "Ġvar": 655,
      "Ġ&&": 656,
      "ĠU": 657,
      "vice": 658,
      "ĠNone": 659,
      "ace": 660,
      "unt": 661,
      "ore": 662,
      "type": 663,
      "Ġthrow": 664,
      "Ġ\\": 665,
      "Ġcont": 666,
      "ĠB": 667,
      "Ġuse": 668,
      "Ġ|": 669,
      "Res": 670,
      "Ġstat": 671,
      "Ġfalse": 672,
      "Ġ2": 673,
      "Ġfile": 674,
      "lement": 675,
      "Ġlog": 676,
      "ir": 677,
      "file": 678,
      "red": 679,
      "Ġ%": 680,
      "ff": 681,
      "To": 682,
      "ak": 683,
      "Ġtrue": 684,
      "value": 685,
      "vent": 686,
      "ay": 687,
      "key": 688,
      "art": 689,
      "ery": 690,
      "date": 691,
      "ator": 692,
      "data": 693,
      "Ġx": 694,
      "Ġ?": 695,
      "em": 696,
      "im": 697,
      "Ġtype": 698,
      "att": 699,
      "Key": 700,
      "ext": 701,
      "ams": 702,
      "tor": 703,
      "ind": 704,
      "tes": 705,
      "ans": 706,
      "Ġresult": 707,
      "ault": 708,
      "und": 709,
      "Ġen": 710,
      "ange": 711,
      "out": 712,
      "ER": 713,
      "cri": 714,
      "ure": 715,
      "Ġout": 716,
      "Ġpo": 717,
      "Error": 718,
      "ax": 719,
      "oo": 720,
      "pec": 721,
      "gth": 722,
      "De": 723,
      "Pro": 724,
      "roup": 725,
      "Ġwith": 726,
      "ĠĠĠ": 727,
      "ument": 728,
      "Ġrequest": 729,
      "ule": 730,
      "Ġcase": 731,
      "ly": 732,
      "Ġstr": 733,
      "ĠIn": 734,
      "----": 735,
      "Par": 736,
      "ust": 737,
      "si": 738,
      "form": 739,
      "lient": 740,
      "ĠH": 741,
      "ail": 742,
      "Ġby": 743,
      "Ġfrom": 744,
      "ribu": 745,
      "En": 746,
      "Ġon": 747,
      "Ġun": 748,
      "ON": 749,
      "Ar": 750,
      "Ġha": 751,
      "ĠR": 752,
      "Ġfinal": 753,
      "path": 754,
      "ress": 755,
      "pt": 756,
      "mo": 757,
      "List": 758,
      "odel": 759,
      "ĠCon": 760,
      "Co": 761,
      "Ġform": 762,
      "ger": 763,
      "ex": 764,
      "Ġcreate": 765,
      "eck": 766,
      "Ġy": 767,
      "IN": 768,
      "ĠW": 769,
      "Ġlist": 770,
      "Ġend": 771,
      "Ġappend": 772,
      "Ġconfig": 773,
      "ll": 774,
      "ameter": 775,
      "iv": 776,
      "Data": 777,
      "igh": 778,
      "ID": 779,
      "00": 780,
      "sion": 781,
      "ener": 782,
      "urrent": 783,
      "Path": 784,
      "Ġ||": 785,
      "ign": 786,
      "Ġpre": 787,
      "Ġid": 788,
      "Ġ===": 789,
      "Ġstatic": 790,
      "lock": 791,
      "Ch": 792,
      "ity": 793,
      "den": 794,
      "ssage": 795,
      "File": 796,
      "ime": 797,
      "ren": 798,
      "Ġu": 799,
      "Ġcol": 800,
      "ber": 801,
      "col": 802,
      "ĠGet": 803,
      "tory": 804,
      "ilter": 805,
      "mm": 806,
      "umn": 807,
      "Ġfield": 808,
      "ink": 809,
      "wor": 810,
      "rint": 811,
      "Ġwh": 812,
      "Ġformat": 813,
      "mpl": 814,
      "roc": 815,
      "Ġsub": 816,
      "lu": 817,
      "ĠV": 818,
      "Ġmethod": 819,
      "str": 820,
      "ĠSet": 821,
      "Ġnode": 822,
      "Request": 823,
      "pla": 824,
      "String": 825,
      "Ġclass": 826,
      "query": 827,
      "til": 828,
      "ute": 829,
      "Ġra": 830,
      "ip": 831,
      "==": 832,
      "mple": 833,
      "ttp": 834,
      "Ġtry": 835,
      "uth": 836,
      "AT": 837,
      "Ġtime": 838,
      "ml": 839,
      "rite": 840,
      "Ġup": 841,
      "Ġlength": 842,
      "Ġpa": 843,
      "Ġal": 844,
      "Config": 845,
      "**": 846,
      "ise": 847,
      "Po": 848,
      "Ġinstance": 849,
      "son": 850,
      "Class": 851,
      "sp": 852,
      "ire": 853,
      "ill": 854,
      "ream": 855,
      "ĠJ": 856,
      "cce": 857,
      "Ġro": 858,
      "ache": 859,
      "eader": 860,
      "pro": 861,
      "Ser": 862,
      "gument": 863,
      "Cont": 864,
      "ound": 865,
      "Ġop": 866,
      "Ġuser": 867,
      "valid": 868,
      "fe": 869,
      "arget": 870,
      "tern": 871,
      "Ġsp": 872,
      "ight": 873,
      "Ġcall": 874,
      "low": 875,
      "perty": 876,
      "Bu": 877,
      "cont": 878,
      "Ġobject": 879,
      "face": 880,
      "Ġdo": 881,
      "args": 882,
      "Set": 883,
      "Ġser": 884,
      "back": 885,
      "tity": 886,
      "Ġoptions": 887,
      "cor": 888,
      "oid": 889,
      "iven": 890,
      "ary": 891,
      "ask": 892,
      "Node": 893,
      "ĠTr": 894,
      "By": 895,
      "mpty": 896,
      "ded": 897,
      "tr": 898,
      "ocal": 899,
      "ifi": 900,
      "ST": 901,
      "Map": 902,
      "essage": 903,
      "cted": 904,
      "RE": 905,
      "Ġcurrent": 906,
      "ersion": 907,
      "Ġall": 908,
      "ated": 909,
      "//": 910,
      "Ġthat": 911,
      "andl": 912,
      "ĠDe": 913,
      "of": 914,
      "rap": 915,
      "Ġgiven": 916,
      "uration": 917,
      "terface": 918,
      "ann": 919,
      "nec": 920,
      "lection": 921,
      "ost": 922,
      "Ġatt": 923,
      "reak": 924,
      "Ġle": 925,
      "Ġinput": 926,
      "Ġhas": 927,
      "Ġpri": 928,
      "op": 929,
      "ds": 930,
      "val": 931,
      "Time": 932,
      "umber": 933,
      "Ġargs": 934,
      "lean": 935,
      "ms": 936,
      "yn": 937,
      "Ġvoid": 938,
      "ribute": 939,
      "Ġ''": 940,
      "av": 941,
      "Ġitem": 942,
      "Ġdefault": 943,
      "Ġfore": 944,
      "Ġresponse": 945,
      "ĠReturn": 946,
      "Ġsh": 947,
      "LE": 948,
      "Ġbreak": 949,
      "Col": 950,
      "rocess": 951,
      "Ġmap": 952,
      "OR": 953,
      "fix": 954,
      "Ġcontext": 955,
      "Ġspec": 956,
      "ings": 957,
      "user": 958,
      "pi": 959,
      "ĠĠĠĠĠĠĠ": 960,
      "port": 961,
      "nd": 962,
      "Ġforeach": 963,
      "Ġte": 964,
      "Object": 965,
      "ccess": 966,
      "ck": 967,
      "Ġit": 968,
      "Ġcomp": 969,
      "field": 970,
      "lete": 971,
      "bug": 972,
      "ilder": 973,
      "gist": 974,
      "ĠList": 975,
      "gin": 976,
      "Info": 977,
      "atus": 978,
      "Qu": 979,
      "Ġstart": 980,
      "mplate": 981,
      "Se": 982,
      "Ġ3": 983,
      "vel": 984,
      "result": 985,
      "scri": 986,
      "vate": 987,
      "list": 988,
      "mage": 989,
      "ties": 990,
      "arsh": 991,
      "pre": 992,
      "config": 993,
      "def": 994,
      "Ġ++": 995,
      "Ġread": 996,
      "ition": 997,
      "andler": 998,
      "place": 999,
      "Ġret": 1000,
      "ong": 1001,
      "ib": 1002,
      "Field": 1003,
      "nection": 1004,
      "ainer": 1005,
      "ob": 1006,
      "ject": 1007,
      "ME": 1008,
      "load": 1009,
      "ĉĉ": 1010,
      "Ġext": 1011,
      "sed": 1012,
      "Ġmessage": 1013,
      "ody": 1014,
      "Ġraise": 1015,
      "Un": 1016,
      "als": 1017,
      "Ġstate": 1018,
      "__": 1019,
      "pa": 1020,
      "ict": 1021,
      "Att": 1022,
      "ations": 1023,
      "count": 1024,
      "Ġ+=": 1025,
      "oin": 1026,
      "AR": 1027,
      "--------": 1028,
      "ree": 1029,
      "tx": 1030,
      "read": 1031,
      "Ġ__": 1032,
      "Ġupdate": 1033,
      "Ġoutput": 1034,
      "Index": 1035,
      "Ġremo": 1036,
      "ified": 1037,
      "mt": 1038,
      "Message": 1039,
      "Ġmatch": 1040,
      "Ġmax": 1041,
      "tected": 1042,
      "odule": 1043,
      "ffer": 1044,
      "Ġisset": 1045,
      "Ġresource": 1046,
      "ager": 1047,
      "Ġcomm": 1048,
      "Ġcheck": 1049,
      "Ġvalid": 1050,
      ".'": 1051,
      "ĠTrue": 1052,
      "AL": 1053,
      "Ġ\"\"": 1054,
      "own": 1055,
      "Code": 1056,
      "oolean": 1057,
      "ĠObject": 1058,
      "Ġwrite": 1059,
      "Def": 1060,
      "Response": 1061,
      "Context": 1062,
      "Ġtrans": 1063,
      "Element": 1064,
      "oad": 1065,
      "options": 1066,
      "ĠTh": 1067,
      "Ġcatch": 1068,
      "uct": 1069,
      "ĠError": 1070,
      "py": 1071,
      "Ġrange": 1072,
      "ta": 1073,
      "min": 1074,
      "space": 1075,
      "Ġsize": 1076,
      "Ġevent": 1077,
      "ĠNew": 1078,
      "rence": 1079,
      "Ġprotected": 1080,
      "Ġbase": 1081,
      "ard": 1082,
      "ake": 1083,
      "ĠSt": 1084,
      "ĠFalse": 1085,
      "Ġz": 1086,
      "Ġclient": 1087,
      "anager": 1088,
      "Ġquery": 1089,
      "ists": 1090,
      "Array": 1091,
      "denti": 1092,
      "Ġprivate": 1093,
      "cord": 1094,
      "ther": 1095,
      "ameters": 1096,
      "action": 1097,
      "Ġempty": 1098,
      "ive": 1099,
      "cal": 1100,
      "onent": 1101,
      "lect": 1102,
      "Ġwill": 1103,
      "State": 1104,
      "UR": 1105,
      "Ġexp": 1106,
      "SE": 1107,
      "sg": 1108,
      "ook": 1109,
      "Ġvalues": 1110,
      "Ġparse": 1111,
      "ference": 1112,
      "Ġtext": 1113,
      ".\"": 1114,
      "ee": 1115,
      "dir": 1116,
      "Ġbo": 1117,
      "iew": 1118,
      "line": 1119,
      "wargs": 1120,
      "Ġctx": 1121,
      "ĠĠĠĠĠĠĠĠĠĠĠĠĠĠĠĠ": 1122,
      "Ġline": 1123,
      "Service": 1124,
      "ĠThe": 1125,
      "Ġ!==": 1126,
      "bo": 1127,
      "tif": 1128,
      "Group": 1129,
      "ename": 1130,
      "Ġac": 1131,
      "yst": 1132,
      "Ġelement": 1133,
      "PI": 1134,
      "Ġreq": 1135,
      "params": 1136,
      "Ġparams": 1137,
      "ride": 1138,
      "lab": 1139,
      "64": 1140,
      "ethod": 1141,
      "Ġare": 1142,
      "Ġnext": 1143,
      "idth": 1144,
      "Ġhttp": 1145,
      "Ġparent": 1146,
      "andle": 1147,
      "abled": 1148,
      "Ġreturns": 1149,
      "Ġnp": 1150,
      "tive": 1151,
      "ĠReturns": 1152,
      "Event": 1153,
      "abel": 1154,
      "Ġtarget": 1155,
      "request": 1156,
      "Ġ4": 1157,
      "ssion": 1158,
      "Query": 1159,
      "Ġrun": 1160,
      "Ġmodel": 1161,
      "ystem": 1162,
      "instance": 1163,
      "Ġcount": 1164,
      "item": 1165,
      "table": 1166,
      "ĠCreate": 1167,
      "Ġos": 1168,
      "link": 1169,
      "arshall": 1170,
      "Ġheader": 1171,
      "Tr": 1172,
      "verride": 1173,
      "Ġobj": 1174,
      "error": 1175,
      "Ġent": 1176,
      "Ġfind": 1177,
      "Ġservice": 1178,
      "Ġcl": 1179,
      "ork": 1180,
      "ION": 1181,
      "Of": 1182,
      "loat": 1183,
      "mb": 1184,
      "Or": 1185,
      "ps": 1186,
      "ron": 1187,
      "riter": 1188,
      "ant": 1189,
      "Ġ**": 1190,
      "Ġ'/": 1191,
      "ies": 1192,
      "EN": 1193,
      "Item": 1194,
      "param": 1195,
      "Out": 1196,
      "Ġsource": 1197,
      "Ġbyte": 1198,
      "ilename": 1199,
      "lit": 1200,
      "ĠAdd": 1201,
      "adata": 1202,
      "ĠRes": 1203,
      "ackage": 1204,
      "ension": 1205,
      "ory": 1206,
      "ributes": 1207,
      "Input": 1208,
      "word": 1209,
      "Ġcontent": 1210,
      "tml": 1211,
      "aliz": 1212,
      "Ġkwargs": 1213,
      "perties": 1214,
      "====": 1215,
      "work": 1216,
      "ctor": 1217,
      "lose": 1218,
      "content": 1219,
      "chem": 1220,
      "peration": 1221,
      "Ġno": 1222,
      "Ġinfo": 1223,
      "ength": 1224,
      "Ġthrows": 1225,
      "iable": 1226,
      "ocation": 1227,
      "irst": 1228,
      "With": 1229,
      "sition": 1230,
      "log": 1231,
      "Ġat": 1232,
      "Ġlogger": 1233,
      "ĠAr": 1234,
      "ĠCh": 1235,
      "Client": 1236,
      "sert": 1237,
      "Token": 1238,
      "Size": 1239,
      "app": 1240,
      "ĠX": 1241,
      "User": 1242,
      "ync": 1243,
      "pdate": 1244,
      "omm": 1245,
      "Ġdebug": 1246,
      "****": 1247,
      "ustom": 1248,
      "Ġprint": 1249,
      "Form": 1250,
      "Ġgroup": 1251,
      "Ġmin": 1252,
      "cept": 1253,
      "Ġdis": 1254,
      "Add": 1255,
      "erm": 1256,
      "Result": 1257,
      "be": 1258,
      "response": 1259,
      "Ġjson": 1260,
      "Resource": 1261,
      "iti": 1262,
      "info": 1263,
      "ding": 1264,
      "ush": 1265,
      "Ġboolean": 1266,
      "ses": 1267,
      "ql": 1268,
      "Builder": 1269,
      "Ro": 1270,
      "ĠException": 1271,
      "uld": 1272,
      "Stream": 1273,
      "Ġexec": 1274,
      "clu": 1275,
      "Ġ#": 1276,
      "roll": 1277,
      "ates": 1278,
      "arn": 1279,
      "cur": 1280,
      "DE": 1281,
      "inition": 1282,
      "uble": 1283,
      "Comp": 1284,
      "From": 1285,
      "chema": 1286,
      "message": 1287,
      "Ġinstanceof": 1288,
      "unction": 1289,
      "Ġsa": 1290,
      "race": 1291,
      "iled": 1292,
      "tings": 1293,
      "ĠSer": 1294,
      "annel": 1295,
      "ner": 1296,
      "md": 1297,
      "ature": 1298,
      "Ġcan": 1299,
      "Ġtable": 1300,
      "SS": 1301,
      "Ġrow": 1302,
      "its": 1303,
      "qui": 1304,
      "Ġfilter": 1305,
      "ft": 1306,
      "escri": 1307,
      "ash": 1308,
      "CT": 1309,
      "Met": 1310,
      "are": 1311,
      "node": 1312,
      "ĠIf": 1313,
      "sc": 1314,
      "ĠThis": 1315,
      "ĠPro": 1316,
      "Ġsup": 1317,
      "AN": 1318,
      "Table": 1319,
      "->": 1320,
      "inue": 1321,
      "ternal": 1322,
      "An": 1323,
      "lication": 1324,
      "IT": 1325,
      "Options": 1326,
      "Ġus": 1327,
      "Ġelif": 1328,
      "Ġjoin": 1329,
      "For": 1330,
      "ression": 1331,
      "size": 1332,
      "Log": 1333,
      "ĠUn": 1334,
      "Ġfmt": 1335,
      "actory": 1336,
      "Ġmsg": 1337,
      "eight": 1338,
      "not": 1339,
      "Content": 1340,
      "Instance": 1341,
      "ix": 1342,
      "rl": 1343,
      "Exp": 1344,
      "ence": 1345,
      "Ġnum": 1346,
      "ateg": 1347,
      "Ġremove": 1348,
      "ĠFile": 1349,
      "ulti": 1350,
      "Pre": 1351,
      "Manager": 1352,
      "match": 1353,
      "tils": 1354,
      "cope": 1355,
      "Ġload": 1356,
      "ou": 1357,
      "point": 1358,
      "rc": 1359,
      "Ġexcept": 1360,
      "Ġspecified": 1361,
      "ĠType": 1362,
      "lob": 1363,
      "Ġequ": 1364,
      "Interface": 1365,
      "Ġgener": 1366,
      "Ġchar": 1367,
      "Ġlast": 1368,
      "Ġversion": 1369,
      "ries": 1370,
      "Params": 1371,
      "Ġcontinue": 1372,
      "ĠgetS": 1373,
      "Ġchild": 1374,
      "sub": 1375,
      "Count": 1376,
      "ep": 1377,
      "rintf": 1378,
      "Method": 1379,
      "ctory": 1380,
      "Ġmake": 1381,
      "Ġwhile": 1382,
      "vider": 1383,
      "lugin": 1384,
      "ING": 1385,
      "attern": 1386,
      "ments": 1387,
      "ld": 1388,
      "group": 1389,
      "Ġti": 1390,
      "lation": 1391,
      "ĠĠĠĠĠĠĠĠĠĠĠ": 1392,
      "ĠValue": 1393,
      "pen": 1394,
      "Ġcolumn": 1395,
      "Argument": 1396,
      "Ġsw": 1397,
      "eb": 1398,
      "Ġoff": 1399,
      "orted": 1400,
      "ntry": 1401,
      "Property": 1402,
      "Ġentry": 1403,
      "map": 1404,
      "tle": 1405,
      "var": 1406,
      "Ġimp": 1407,
      "Ġproto": 1408,
      "tic": 1409,
      "here": 1410,
      "ĠOverride": 1411,
      "Ġmust": 1412,
      "Ġprocess": 1413,
      "rame": 1414,
      "Ġtoken": 1415,
      "ark": 1416,
      "uto": 1417,
      "ys": 1418,
      "Ġcom": 1419,
      "Ġimage": 1420,
      "older": 1421,
      "rim": 1422,
      "allback": 1423,
      "Ġput": 1424,
      "ĠPar": 1425,
      "led": 1426,
      "..": 1427,
      "PE": 1428,
      "ailed": 1429,
      "cre": 1430,
      "On": 1431,
      "Ġblock": 1432,
      "Version": 1433,
      "ints": 1434,
      "Ġval": 1435,
      "Ġbool": 1436,
      "add": 1437,
      "version": 1438,
      "RO": 1439,
      "erge": 1440,
      "SON": 1441,
      "ok": 1442,
      "Ġfloat": 1443,
      "CE": 1444,
      "Pa": 1445,
      "method": 1446,
      "dition": 1447,
      "Output": 1448,
      "alize": 1449,
      "ined": 1450,
      "ph": 1451,
      "Ġfirst": 1452,
      "Ġlocal": 1453,
      ");": 1454,
      "sing": 1455,
      "Ġstatus": 1456,
      "header": 1457,
      "tific": 1458,
      "Ġcontain": 1459,
      "dentifi": 1460,
      "ref": 1461,
      "model": 1462,
      "Url": 1463,
      "Ġ`": 1464,
      "ssword": 1465,
      "Ġconst": 1466,
      "vert": 1467,
      "Column": 1468,
      "Ġerrors": 1469,
      "Attribute": 1470,
      "itch": 1471,
      "Status": 1472,
      "Ġab": 1473,
      "Ġref": 1474,
      "ord": 1475,
      "As": 1476,
      "Ġargument": 1477,
      "clude": 1478,
      "Ġdelete": 1479,
      "Not": 1480,
      "ia": 1481,
      "Model": 1482,
      "Trans": 1483,
      "Ġ--": 1484,
      "Ġdate": 1485,
      "quired": 1486,
      "Ġregist": 1487,
      "cy": 1488,
      "Header": 1489,
      "Ġne": 1490,
      "teger": 1491,
      "elper": 1492,
      "amp": 1493,
      "Ġ\"\\": 1494,
      "Ġq": 1495,
      "mit": 1496,
      "Handler": 1497,
      "Ġcal": 1498,
      "Ġ5": 1499,
      "}\"": 1500,
      "les": 1501,
      "LO": 1502,
      "TE": 1503,
      "scription": 1504,
      "Enabled": 1505,
      "ĠEn": 1506,
      "TT": 1507,
      "lat": 1508,
      "ĠArray": 1509,
      "ĠK": 1510,
      "Ġsession": 1511,
      "Ġauth": 1512,
      "Text": 1513,
      "default": 1514,
      "Ġsplit": 1515,
      "Ġdb": 1516,
      "com": 1517,
      "ĠAPI": 1518,
      "Ġopts": 1519,
      "Ġsu": 1520,
      "Ġad": 1521,
      "Ġparam": 1522,
      "no": 1523,
      "raph": 1524,
      "ines": 1525,
      "All": 1526,
      "Ġisinstance": 1527,
      "Ġiter": 1528,
      "Ġinterface": 1529,
      "act": 1530,
      "Var": 1531,
      "so": 1532,
      "ite": 1533,
      "context": 1534,
      "////": 1535,
      "ission": 1536,
      "UL": 1537,
      "Ġserver": 1538,
      "Ġ'\\": 1539,
      "omain": 1540,
      "Te": 1541,
      "Ġ>=": 1542,
      "comp": 1543,
      "Ġtag": 1544,
      "Ġcommand": 1545,
      "ĠRequest": 1546,
      "ract": 1547,
      "Ġok": 1548,
      "ffset": 1549,
      "irectory": 1550,
      "Ġfound": 1551,
      "pos": 1552,
      "roller": 1553,
      "ML": 1554,
      "formation": 1555,
      "ify": 1556,
      "lay": 1557,
      "dire": 1558,
      "ĠCol": 1559,
      "Ġcache": 1560,
      "licy": 1561,
      "etwork": 1562,
      "ET": 1563,
      "ĠCo": 1564,
      "ish": 1565,
      "Ġroot": 1566,
      "Ġcur": 1567,
      "Ġcallback": 1568,
      "ume": 1569,
      "Ġaction": 1570,
      "ome": 1571,
      "event": 1572,
      "Ġkeys": 1573,
      "by": 1574,
      "Ġ>>": 1575,
      "ud": 1576,
      "ĠName": 1577,
      "Ġapi": 1578,
      "attr": 1579,
      "leg": 1580,
      "Ġnumber": 1581,
      "uage": 1582,
      "Le": 1583,
      "for": 1584,
      "fore": 1585,
      "Ġreplace": 1586,
      "Ġpage": 1587,
      "Date": 1588,
      "Ġequals": 1589,
      "ual": 1590,
      "ution": 1591,
      "Ġlong": 1592,
      "Ġsend": 1593,
      "view": 1594,
      "fter": 1595,
      "Str": 1596,
      "Sto": 1597,
      "Ġused": 1598,
      "Dir": 1599,
      "Ġusing": 1600,
      "Ġbody": 1601,
      "umer": 1602,
      "comm": 1603,
      "Ġinto": 1604,
      "Ġhost": 1605,
      "Ġarg": 1606,
      "Exec": 1607,
      "ould": 1608,
      "dentifier": 1609,
      "ample": 1610,
      "let": 1611,
      "Entry": 1612,
      "ces": 1613,
      "uri": 1614,
      "No": 1615,
      "AME": 1616,
      "page": 1617,
      "Cache": 1618,
      "etch": 1619,
      "sent": 1620,
      "Ġone": 1621,
      "Ġstream": 1622,
      "cket": 1623,
      "Ġother": 1624,
      "ĠgetName": 1625,
      "ocument": 1626,
      "max": 1627,
      "ĠIO": 1628,
      "new": 1629,
      "Ġwhen": 1630,
      "dict": 1631,
      "Ġver": 1632,
      "Ġlabel": 1633,
      "ics": 1634,
      "Ġdouble": 1635,
      "FI": 1636,
      "Filter": 1637,
      "Ġswitch": 1638,
      "db": 1639,
      "Format": 1640,
      "Ġ<=": 1641,
      "ide": 1642,
      "ma": 1643,
      "Ġoffset": 1644,
      "ĠY": 1645,
      "ĠClass": 1646,
      "ession": 1647,
      "ĠMap": 1648,
      "column": 1649,
      "start": 1650,
      "tal": 1651,
      "Page": 1652,
      "ial": 1653,
      "ved": 1654,
      "Ġexist": 1655,
      "Parameter": 1656,
      "UT": 1657,
      "CO": 1658,
      "Ġsets": 1659,
      "Comm": 1660,
      "Ac": 1661,
      "Sub": 1662,
      "Ġproperty": 1663,
      "ped": 1664,
      "Ġconnection": 1665,
      "ait": 1666,
      "label": 1667,
      "order": 1668,
      "filter": 1669,
      "Ġaw": 1670,
      "Ġitems": 1671,
      "Ġtask": 1672,
      "Ġtc": 1673,
      "ific": 1674,
      "ava": 1675,
      "Ġhandle": 1676,
      "ĠBu": 1677,
      "lot": 1678,
      "play": 1679,
      "Ġsc": 1680,
      "tadata": 1681,
      "auth": 1682,
      "Ġresp": 1683,
      "----------------": 1684,
      "unk": 1685,
      "rid": 1686,
      "xy": 1687,
      "}'": 1688,
      "state": 1689,
      "input": 1690,
      "Line": 1691,
      "output": 1692,
      "Ġopen": 1693,
      "Ġass": 1694,
      "ĠID": 1695,
      "format": 1696,
      "ich": 1697,
      "Ġfiles": 1698,
      "gment": 1699,
      "uster": 1700,
      "YPE": 1701,
      "Auth": 1702,
      "Ġfilename": 1703,
      "Ġwork": 1704,
      "Ġdest": 1705,
      "Ġconn": 1706,
      "Configuration": 1707,
      "values": 1708,
      "len": 1709,
      "Ġresol": 1710,
      "Ġany": 1711,
      "Source": 1712,
      "lector": 1713,
      "ĠUR": 1714,
      "Int": 1715,
      "gn": 1716,
      "Th": 1717,
      "imit": 1718,
      "32": 1719,
      "End": 1720,
      "Factory": 1721,
      "Ġtemplate": 1722,
      "ails": 1723,
      "Ġclose": 1724,
      "os": 1725,
      "Be": 1726,
      "Ġmodule": 1727,
      "App": 1728,
      "Ġ//": 1729,
      "ĠtoString": 1730,
      "Ġcopy": 1731,
      "du": 1732,
      "ĠContext": 1733,
      "ĠRun": 1734,
      "Valid": 1735,
      "Ġ\"/": 1736,
      "Child": 1737,
      "Ġper": 1738,
      "Ġattr": 1739,
      "pected": 1740,
      "ous": 1741,
      "json": 1742,
      "ting": 1743,
      "exists": 1744,
      "Block": 1745,
      "ĠData": 1746,
      "Ġcustom": 1747,
      "ants": 1748,
      "Ġqu": 1749,
      "indow": 1750,
      "trans": 1751,
      "Length": 1752,
      "iter": 1753,
      "Ġoption": 1754,
      "annot": 1755,
      "=\"": 1756,
      "Ġoperation": 1757,
      "ĠLog": 1758,
      "Ġ6": 1759,
      "View": 1760,
      "Ġsign": 1761,
      "CH": 1762,
      "ĠĠĠĠĠĠĠĠĠĠĠĠĠĠĠ": 1763,
      "Const": 1764,
      "ible": 1765,
      "Ġfe": 1766,
      "01": 1767,
      "ATE": 1768,
      "Ġpos": 1769,
      "AG": 1770,
      "dis": 1771,
      "Ġparameter": 1772,
      "Ġ\"%": 1773,
      "Ġax": 1774,
      "()": 1775,
      "NT": 1776,
      "URL": 1777,
      "Tag": 1778,
      "ĠLO": 1779,
      "resource": 1780,
      "Action": 1781,
      "inter": 1782,
      "ags": 1783,
      "raw": 1784,
      "yle": 1785,
      "Rule": 1786,
      "Ġprotocol": 1787,
      "TTP": 1788,
      "Ġhash": 1789,
      "Ġmarshall": 1790,
      "Ġinter": 1791,
      "ie": 1792,
      "cl": 1793,
      "Definition": 1794,
      "stamp": 1795,
      "check": 1796,
      "Descri": 1797,
      "Ġwe": 1798,
      "queue": 1799,
      "Ġwhich": 1800,
      "gra": 1801,
      "Dis": 1802,
      "ĠCont": 1803,
      "quence": 1804,
      "Ġshould": 1805,
      "Ġeach": 1806,
      "Ġsrc": 1807,
      "Al": 1808,
      "UE": 1809,
      "Ġcontainer": 1810,
      "ĠIOException": 1811,
      "ĠJSON": 1812,
      "Ġ10": 1813,
      "ĠgetC": 1814,
      "Component": 1815,
      "Ġpush": 1816,
      "Ġbuffer": 1817,
      "cript": 1818,
      "Ġdir": 1819,
      "Ġview": 1820,
      "AD": 1821,
      "Ġonly": 1822,
      "ArgumentException": 1823,
      "rol": 1824,
      "Ġgo": 1825,
      "Ġren": 1826,
      "ination": 1827,
      "from": 1828,
      "Ġbuf": 1829,
      "ptor": 1830,
      "sor": 1831,
      "Invalid": 1832,
      "Access": 1833,
      "coding": 1834,
      "Ġfields": 1835,
      "cache": 1836,
      "sitory": 1837,
      "Number": 1838,
      "Ġorder": 1839,
      "with": 1840,
      "And": 1841,
      "ĠConfig": 1842,
      "Ġjob": 1843,
      "ĠUpdate": 1844,
      "source": 1845,
      "ayload": 1846,
      "Ġconfiguration": 1847,
      "PT": 1848,
      "http": 1849,
      "Ġexecute": 1850,
      "ĠErr": 1851,
      "Default": 1852,
      "ĠTo": 1853,
      "Start": 1854,
      "Option": 1855,
      "Ġold": 1856,
      "ision": 1857,
      "ized": 1858,
      "Ġheaders": 1859,
      "Ġ',": 1860,
      "replace": 1861,
      "ke": 1862,
      "Empty": 1863,
      "Ġ()": 1864,
      "ower": 1865,
      "Ġcmd": 1866,
      "Ġ8": 1867,
      "lobal": 1868,
      "uid": 1869,
      "Buffer": 1870,
      "ailable": 1871,
      "Ġnon": 1872,
      "Ġdoes": 1873,
      "Ġchange": 1874,
      "Image": 1875,
      "Update": 1876,
      "ocket": 1877,
      "status": 1878,
      "Ġparameters": 1879,
      "obj": 1880,
      "old": 1881,
      "Ġbytes": 1882,
      "oci": 1883,
      "Ġexists": 1884,
      "lice": 1885,
      "Ġinst": 1886,
      "ĠService": 1887,
      "Ġprovi": 1888,
      "Ġ'%": 1889,
      "Ġinformation": 1890,
      "Ġrule": 1891,
      "tag": 1892,
      "Ġmo": 1893,
      "temp": 1894,
      "ĠSp": 1895,
      "Ad": 1896,
      "Ġprefix": 1897,
      "upp": 1898,
      "Ġtra": 1899,
      "las": 1900,
      "gion": 1901,
      "Entity": 1902,
      "ick": 1903,
      "Names": 1904,
      "Connection": 1905,
      "At": 1906,
      "ategory": 1907,
      "ating": 1908,
      "ures": 1909,
      "Ġwhere": 1910,
      "ĠApp": 1911,
      "Ġsearch": 1912,
      "========": 1913,
      "atri": 1914,
      "Ġpop": 1915,
      "ĠKey": 1916,
      "mail": 1917,
      "est": 1918,
      "viron": 1919,
      "ĠErrorf": 1920,
      "lan": 1921,
      "undle": 1922,
      "Values": 1923,
      "Ġiniti": 1924,
      "($": 1925,
      "ump": 1926,
      "Ġencode": 1927,
      "Ġexception": 1928,
      "ret": 1929,
      "Ġ'/'": 1930,
      "Ġattribute": 1931,
      "ĠgetP": 1932,
      "Ġyou": 1933,
      "io": 1934,
      "element": 1935,
      "keys": 1936,
      "Ġthen": 1937,
      "Ref": 1938,
      "image": 1939,
      "anguage": 1940,
      "Utils": 1941,
      "Ġdocument": 1942,
      "Tra": 1943,
      "Ġ$_": 1944,
      "arshaller": 1945,
      "Ġhave": 1946,
      "Get": 1947,
      "move": 1948,
      "********": 1949,
      "files": 1950,
      "Ġstore": 1951,
      "Ġwarn": 1952,
      "ĠCheck": 1953,
      "Ġpost": 1954,
      "Ġresults": 1955,
      "Row": 1956,
      "ĠInvalid": 1957,
      "ert": 1958,
      "headers": 1959,
      "NAME": 1960,
      "ell": 1961,
      "ĠLOG": 1962,
      "Server": 1963,
      "parent": 1964,
      "Ġmod": 1965,
      "legal": 1966,
      "ĠMessage": 1967,
      "atrix": 1968,
      "Ext": 1969,
      "Types": 1970,
      "ization": 1971,
      "Ġsprintf": 1972,
      "ally": 1973,
      "Ġcolor": 1974,
      "ĠNode": 1975,
      "stru": 1976,
      "ĠSe": 1977,
      "Spec": 1978,
      "return": 1979,
      "Ġcontains": 1980,
      "Address": 1981,
      "Expression": 1982,
      "DB": 1983,
      "Sh": 1984,
      "ility": 1985,
      "OL": 1986,
      "Found": 1987,
      "Ġcls": 1988,
      "quire": 1989,
      "llegal": 1990,
      "Marshaller": 1991,
      "post": 1992,
      "Ġvalidate": 1993,
      "Local": 1994,
      "river": 1995,
      "ĠValid": 1996,
      "module": 1997,
      "Ġassert": 1998,
      "Ġport": 1999,
      "current": 2000,
      "resh": 2001,
      "FA": 2002,
      "</": 2003,
      "Ġvariable": 2004,
      "fields": 2005,
      "Ġsy": 2006,
      "ingle": 2007,
      "rie": 2008,
      "ĠDE": 2009,
      "Ġrecord": 2010,
      "ĠValueError": 2011,
      "Ġag": 2012,
      "notation": 2013,
      "Ġ'_": 2014,
      "duct": 2015,
      "Ġlink": 2016,
      "dent": 2017,
      "Ġraw": 2018,
      "local": 2019,
      "acter": 2020,
      "lable": 2021,
      ">'": 2022,
      "rip": 2023,
      "Ġentity": 2024,
      "OT": 2025,
      ")\"": 2026,
      "ping": 2027,
      "Ġback": 2028,
      "ĠNo": 2029,
      "length": 2030,
      "LI": 2031,
      "olume": 2032,
      "ias": 2033,
      "cry": 2034,
      "ns": 2035,
      "null": 2036,
      "Ġtop": 2037,
      "cs": 2038,
      "mary": 2039,
      "lease": 2040,
      "ves": 2041,
      "cul": 2042,
      "types": 2043,
      "Ġfla": 2044,
      "core": 2045,
      "Ġelseif": 2046,
      "Ġ'.": 2047,
      "template": 2048,
      "ched": 2049,
      "create": 2050,
      "lear": 2051,
      "ging": 2052,
      "ids": 2053,
      "Match": 2054,
      "cale": 2055,
      "Ġwidth": 2056,
      "Null": 2057,
      "QL": 2058,
      "rop": 2059,
      "ED": 2060,
      "Template": 2061,
      "ector": 2062,
      "Base": 2063,
      "Ġsave": 2064,
      "Ġchannel": 2065,
      "Link": 2066,
      "oi": 2067,
      "ermission": 2068,
      "ead": 2069,
      "Ġav": 2070,
      "box": 2071,
      "Sp": 2072,
      "service": 2073,
      "Next": 2074,
      "Ġposition": 2075,
      "Ġhtml": 2076,
      "ĠIllegal": 2077,
      "ĠInteger": 2078,
      "SER": 2079,
      "Ġlay": 2080,
      "ĠCms": 2081,
      "Ġtest": 2082,
      "Char": 2083,
      "Ġidx": 2084,
      "Ġinit": 2085,
      "Param": 2086,
      "\\\\": 2087,
      "Provider": 2088,
      "Ġsupp": 2089,
      "ln": 2090,
      "store": 2091,
      "Ġproperties": 2092,
      "block": 2093,
      "Ġallow": 2094,
      "fir": 2095,
      "::": 2096,
      "Package": 2097,
      "Bytes": 2098,
      "UN": 2099,
      "Ġtmp": 2100,
      "Ġnorm": 2101,
      "Metadata": 2102,
      "ĠDelete": 2103,
      "ĠURL": 2104,
      "Ġarguments": 2105,
      "nown": 2106,
      "Ġimport": 2107,
      "The": 2108,
      "entic": 2109,
      "Ġregister": 2110,
      "enu": 2111,
      "lasses": 2112,
      "orage": 2113,
      "ĠgetM": 2114,
      "Task": 2115,
      "Ġproject": 2116,
      "ĠIN": 2117,
      "Container": 2118,
      "ĠComp": 2119,
      "Ġshape": 2120,
      "Ġinvalid": 2121,
      "ative": 2122,
      "Ġaddress": 2123,
      "inary": 2124,
      "Session": 2125,
      "update": 2126,
      "html": 2127,
      "ical": 2128,
      "Ġstar": 2129,
      "ĠAn": 2130,
      "ached": 2131,
      "title": 2132,
      "Ġscope": 2133,
      "Ġtimeout": 2134,
      "gnore": 2135,
      "ready": 2136,
      "Ġextend": 2137,
      "Ġparser": 2138,
      "Util": 2139,
      "AM": 2140,
      "ĠDescri": 2141,
      "onth": 2142,
      "api": 2143,
      "ĠCollection": 2144,
      "df": 2145,
      "ran": 2146,
      "mbol": 2147,
      "Ġ100": 2148,
      "Ġmulti": 2149,
      "Ġstrings": 2150,
      "ĠSee": 2151,
      "Check": 2152,
      "arshal": 2153,
      "Ġdict": 2154,
      "Ġph": 2155,
      "last": 2156,
      "Command": 2157,
      "cond": 2158,
      "ĠDate": 2159,
      "PO": 2160,
      "Function": 2161,
      "Ġcomponent": 2162,
      "Ġrequired": 2163,
      "ĠUser": 2164,
      "Ġlevel": 2165,
      "Ġgenerate": 2166,
      "ĠSend": 2167,
      "AB": 2168,
      "ĠComm": 2169,
      "Mode": 2170,
      "ave": 2171,
      "host": 2172,
      "Sec": 2173,
      "client": 2174,
      "andom": 2175,
      "server": 2176,
      "Label": 2177,
      "cell": 2178,
      "VER": 2179,
      "Listener": 2180,
      "utes": 2181,
      "exp": 2182,
      "Ġdep": 2183,
      "Ġtemp": 2184,
      "entity": 2185,
      "container": 2186,
      "ear": 2187,
      "target": 2188,
      "orts": 2189,
      "CON": 2190,
      "rapper": 2191,
      "ass": 2192,
      "Ġhandler": 2193,
      "Ġnamespace": 2194,
      "issing": 2195,
      "Ġ'{": 2196,
      "ENT": 2197,
      "way": 2198,
      "ats": 2199,
      "Prefix": 2200,
      "ĠQ": 2201,
      "Ġ'\"": 2202,
      "Ġsettings": 2203,
      "Job": 2204,
      "names": 2205,
      "Body": 2206,
      "Ġattributes": 2207,
      "ique": 2208,
      "oader": 2209,
      "Ġafter": 2210,
      "Ġed": 2211,
      "Ġuint": 2212,
      "eme": 2213,
      "Ġcollection": 2214,
      "Writer": 2215,
      "Ġdirectory": 2216,
      "EX": 2217,
      "ertific": 2218,
      "ĠRead": 2219,
      "command": 2220,
      "Ġmode": 2221,
      "Ġreturned": 2222,
      "Ġpass": 2223,
      "['": 2224,
      "Ġrender": 2225,
      "Ġbind": 2226,
      "tiv": 2227,
      "ULT": 2228,
      "Ġjava": 2229,
      "alized": 2230,
      "Ġreference": 2231,
      "idget": 2232,
      "Ġwas": 2233,
      "Ġdevice": 2234,
      "very": 2235,
      "ĠGener": 2236,
      "Ġenv": 2237,
      "Ġprovided": 2238,
      "ĠgetRe": 2239,
      "Fields": 2240,
      "Ġdist": 2241,
      "property": 2242,
      "ĠTime": 2243,
      "('": 2244,
      "Properties": 2245,
      "If": 2246,
      "Ġdefer": 2247,
      "lish": 2248,
      "Ġtypes": 2249,
      "gex": 2250,
      "imple": 2251,
      "Ġleft": 2252,
      "defined": 2253,
      "fer": 2254,
      "Ġconvert": 2255,
      "Ġtrim": 2256,
      "xml": 2257,
      "Ġschema": 2258,
      "terator": 2259,
      "FF": 2260,
      "ĠResponse": 2261,
      "direct": 2262,
      "aw": 2263,
      "kip": 2264,
      "Target": 2265,
      "Ġsum": 2266,
      "ĠEx": 2267,
      "RI": 2268,
      "Hash": 2269,
      "Ġmore": 2270,
      "Ġsort": 2271,
      "patch": 2272,
      "Ġsuper": 2273,
      "unter": 2274,
      "Ġdatabase": 2275,
      "lem": 2276,
      "Change": 2277,
      "ont": 2278,
      "ĠgetMessage": 2279,
      "site": 2280,
      "Ġpreg": 2281,
      "ration": 2282,
      "nap": 2283,
      "num": 2284,
      "change": 2285,
      "Ġmem": 2286,
      "iction": 2287,
      "Ġresolve": 2288,
      "Run": 2289,
      "IND": 2290,
      "ĠHTTP": 2291,
      "dentity": 2292,
      "reg": 2293,
      "Su": 2294,
      "ĠgetD": 2295,
      "Ġstruct": 2296,
      "Ġ\"'": 2297,
      "uple": 2298,
      "AC": 2299,
      "vironment": 2300,
      "ĠprotocolMarshaller": 2301,
      "ĠgetValue": 2302,
      "uture": 2303,
      "Ġdif": 2304,
      "Level": 2305,
      "ĠZ": 2306,
      "filename": 2307,
      "SI": 2308,
      "sign": 2309,
      "pository": 2310,
      "Ġauto": 2311,
      "we": 2312,
      "Ġselect": 2313,
      "ĠMath": 2314,
      "Ġaccess": 2315,
      "loud": 2316,
      "spec": 2317,
      "ĠResource": 2318,
      "Root": 2319,
      "Up": 2320,
      "Ġheight": 2321,
      "\\\"": 2322,
      "Ġseri": 2323,
      "Ġtitle": 2324,
      "Ġdecode": 2325,
      "Ġtotal": 2326,
      "elp": 2327,
      "Width": 2328,
      "process": 2329,
      "cent": 2330,
      "Ġapply": 2331,
      "bs": 2332,
      "Ġfetch": 2333,
      "penden": 2334,
      "TYPE": 2335,
      "ĠArrayList": 2336,
      "Ġpattern": 2337,
      "lected": 2338,
      "pc": 2339,
      "ĠWrite": 2340,
      "Ġsubstr": 2341,
      "Ġstop": 2342,
      "Ġmetadata": 2343,
      "down": 2344,
      "number": 2345,
      "pect": 2346,
      "OD": 2347,
      "vious": 2348,
      "Ġcomple": 2349,
      "ĠSystem": 2350,
      "Ġfn": 2351,
      "Ġnames": 2352,
      "Ġstyle": 2353,
      "Ġfull": 2354,
      "Offset": 2355,
      "perator": 2356,
      "ĠHash": 2357,
      "Ġover": 2358,
      "shot": 2359,
      "hash": 2360,
      "Case": 2361,
      "run": 2362,
      "Work": 2363,
      "present": 2364,
      "Ġcor": 2365,
      "Lay": 2366,
      "gress": 2367,
      "Ġinclude": 2368,
      "sure": 2369,
      "Ġutil": 2370,
      "parameters": 2371,
      "Ġbuilder": 2372,
      "Ġpackage": 2373,
      "Ġpas": 2374,
      "Ġexisting": 2375,
      "tom": 2376,
      "EL": 2377,
      "aster": 2378,
      "apter": 2379,
      "Keys": 2380,
      "gine": 2381,
      "Ġsb": 2382,
      "char": 2383,
      "zon": 2384,
      "itor": 2385,
      "ĠParse": 2386,
      "Ġbefore": 2387,
      "ĠField": 2388,
      "ered": 2389,
      "child": 2390,
      "lib": 2391,
      "Reference": 2392,
      "Point": 2393,
      "Ġ<<": 2394,
      "alt": 2395,
      "Helper": 2396,
      "Gener": 2397,
      "vok": 2398,
      "Parent": 2399,
      "da": 2400,
      "Ġ'-": 2401,
      "AS": 2402,
      "level": 2403,
      "ensions": 2404,
      "Ġplugin": 2405,
      "su": 2406,
      "Ġmerge": 2407,
      "ĠSto": 2408,
      "ĠTrans": 2409,
      "Ġfailed": 2410,
      "iod": 2411,
      "Ġrep": 2412,
      "Ġdat": 2413,
      "ĠClient": 2414,
      "Store": 2415,
      "ient": 2416,
      "Parameters": 2417,
      "mod": 2418,
      "////////": 2419,
      "Range": 2420,
      "Per": 2421,
      "ton": 2422,
      "root": 2423,
      "option": 2424,
      "Tree": 2425,
      "width": 2426,
      "Ġorg": 2427,
      "tra": 2428,
      "sql": 2429,
      "Attributes": 2430,
      "try": 2431,
      "rs": 2432,
      "Ġman": 2433,
      "OM": 2434,
      "php": 2435,
      "ublish": 2436,
      "loy": 2437,
      "pri": 2438,
      "ĉĉĉĉ": 2439,
      "merge": 2440,
      "ning": 2441,
      "Call": 2442,
      "ĠST": 2443,
      "ĠIs": 2444,
      "sets": 2445,
      "gest": 2446,
      "prefix": 2447,
      "Ġ'<": 2448,
      "sum": 2449,
      "callback": 2450,
      "ouble": 2451,
      "doc": 2452,
      "session": 2453,
      "Ġlimit": 2454,
      "Ġlock": 2455,
      "Callback": 2456,
      "Err": 2457,
      "TH": 2458,
      "ipe": 2459,
      "New": 2460,
      "Ġ'.'": 2461,
      "Create": 2462,
      "ause": 2463,
      "Ġcre": 2464,
      "Ġbut": 2465,
      "Reader": 2466,
      "ertificate": 2467,
      "Policy": 2468,
      "argument": 2469,
      "Ġobjects": 2470,
      "Order": 2471,
      "ox": 2472,
      "Ġprop": 2473,
      "Ġuri": 2474,
      "ĠRE": 2475,
      "Collection": 2476,
      "her": 2477,
      "flow": 2478,
      "ater": 2479,
      "cess": 2480,
      "ĠSub": 2481,
      "ĠRuntime": 2482,
      "Lock": 2483,
      "cts": 2484,
      "Ġstack": 2485,
      "Ġdel": 2486,
      "pha": 2487,
      "cer": 2488,
      "Ġli": 2489,
      "Ġpk": 2490,
      "utton": 2491,
      "Ġ\",": 2492,
      "offset": 2493,
      "napshot": 2494,
      "Ġbegin": 2495,
      "Ġlocation": 2496,
      "Ġvis": 2497,
      "rage": 2498,
      "WS": 2499,
      "AX": 2500,
      "Position": 2501,
      "ift": 2502,
      "Ġxml": 2503,
      "body": 2504,
      "DI": 2505,
      "Ġalready": 2506,
      "Ġsame": 2507,
      "ote": 2508,
      "conds": 2509,
      "Ġdire": 2510,
      "Host": 2511,
      "Settings": 2512,
      "sole": 2513,
      "='": 2514,
      "ĠCreates": 2515,
      "Inter": 2516,
      "ĠBy": 2517,
      "Ġpassword": 2518,
      "tification": 2519,
      "Ġits": 2520,
      "Ġpassed": 2521,
      "Mem": 2522,
      "gh": 2523,
      "\",": 2524,
      "TER": 2525,
      "verse": 2526,
      "seri": 2527,
      "mode": 2528,
      "/'": 2529,
      "Read": 2530,
      "IP": 2531,
      "ĠHttp": 2532,
      "Ġtree": 2533,
      "ors": 2534,
      ")'": 2535,
      "Ġso": 2536,
      "Ġclear": 2537,
      "ending": 2538,
      "ĠĠĠĠĠĠĠĠĠĠĠĠĠĠĠĠĠĠĠ": 2539,
      "Ġtx": 2540,
      "cat": 2541,
      "sha": 2542,
      "Ag": 2543,
      "Pos": 2544,
      "EY": 2545,
      "attributes": 2546,
      "Ġhttps": 2547,
      "Ġnodes": 2548,
      "Ġqueue": 2549,
      "Ġsuccess": 2550,
      "write": 2551,
      "mazon": 2552,
      "cip": 2553,
      "ĠDef": 2554,
      "Func": 2555,
      "Ġnetwork": 2556,
      "API": 2557,
      "Ġelements": 2558,
      "Obj": 2559,
      "12": 2560,
      "Ġim": 2561,
      "Ġpoint": 2562,
      "Ġ':": 2563,
      "day": 2564,
      "Ġsingle": 2565,
      "Ġlet": 2566,
      "imum": 2567,
      "round": 2568,
      "Ġmay": 2569,
      "Variable": 2570,
      "Ġ7": 2571,
      "ĠAtt": 2572,
      "lated": 2573,
      "Ġip": 2574,
      "nect": 2575,
      "ority": 2576,
      "vision": 2577,
      "AP": 2578,
      "ĠDescribe": 2579,
      "Args": 2580,
      "Ġsys": 2581,
      "Ġexit": 2582,
      "Ids": 2583,
      "IL": 2584,
      "fs": 2585,
      "Ġio": 2586,
      "Ġstd": 2587,
      "FAULT": 2588,
      "HP": 2589,
      "ffix": 2590,
      "cing": 2591,
      "ade": 2592,
      "Meta": 2593,
      "items": 2594,
      "aded": 2595,
      "Stack": 2596,
      "Ġright": 2597,
      "10": 2598,
      "pts": 2599,
      "Ġstarts": 2600,
      "Ġchildren": 2601,
      "ueue": 2602,
      "ĠTrace": 2603,
      "Ġroute": 2604,
      "Process": 2605,
      "Failed": 2606,
      "ĠMethod": 2607,
      "full": 2608,
      "ĠEvent": 2609,
      "ape": 2610,
      "gister": 2611,
      "Parser": 2612,
      "ynch": 2613,
      "Ġmark": 2614,
      "rule": 2615,
      "igger": 2616,
      "Ġmeta": 2617,
      "ĠStatus": 2618,
      "BIND": 2619,
      "ersist": 2620,
      "ne": 2621,
      "amb": 2622,
      "gener": 2623,
      "msg": 2624,
      "\\'": 2625,
      "Ġ{}": 2626,
      "Record": 2627,
      "VAL": 2628,
      "ĠPath": 2629,
      "Timeout": 2630,
      "ĠgetF": 2631,
      "serv": 2632,
      "address": 2633,
      "late": 2634,
      "Ġunset": 2635,
      "ords": 2636,
      "Ġaws": 2637,
      "LA": 2638,
      "Ġshow": 2639,
      "Height": 2640,
      "main": 2641,
      "Ġabs": 2642,
      "Ġfl": 2643,
      "ĠisEmpty": 2644,
      "cle": 2645,
      "tyle": 2646,
      "Ġnow": 2647,
      "BINDING": 2648,
      "Ġtypeof": 2649,
      "Files": 2650,
      "Ġge": 2651,
      "ven": 2652,
      "medi": 2653,
      "##": 2654,
      "alizer": 2655,
      "ls": 2656,
      "ĠUse": 2657,
      "Ali": 2658,
      "oice": 2659,
      "Max": 2660,
      "Ġframe": 2661,
      "atic": 2662,
      "ATION": 2663,
      "exception": 2664,
      "Location": 2665,
      "tree": 2666,
      "record": 2667,
      "Document": 2668,
      "eek": 2669,
      "Ġrepresent": 2670,
      "luster": 2671,
      "parse": 2672,
      "ĠIllegalArgumentException": 2673,
      "Ġaccount": 2674,
      "ynchron": 2675,
      "less": 2676,
      "Com": 2677,
      "ollow": 2678,
      "rer": 2679,
      "Ġ\"{": 2680,
      "Ġsql": 2681,
      "ĠForm": 2682,
      "gistry": 2683,
      "Ġfeature": 2684,
      "Dec": 2685,
      "Ġavailable": 2686,
      "Ġdim": 2687,
      "encode": 2688,
      "func": 2689,
      "99": 2690,
      "tocol": 2691,
      "ĠQuery": 2692,
      "Port": 2693,
      "Ġaxis": 2694,
      "Identifier": 2695,
      "limit": 2696,
      "ĠInput": 2697,
      "Ġdescription": 2698,
      "ranch": 2699,
      "ĠOption": 2700,
      "Ġcolumns": 2701,
      "ROR": 2702,
      "Ġpy": 2703,
      "actor": 2704,
      "Async": 2705,
      "Ġtags": 2706,
      "NotFound": 2707,
      "Ġdet": 2708,
      "Pri": 2709,
      "Execution": 2710,
      "ero": 2711,
      "erce": 2712,
      "arg": 2713,
      "Ġsample": 2714,
      "ender": 2715,
      "Is": 2716,
      "attribute": 2717,
      "div": 2718,
      "pare": 2719,
      "structor": 2720,
      "Ġpayload": 2721,
      "Ġlib": 2722,
      "SC": 2723,
      "ĠCal": 2724,
      "Ġtrace": 2725,
      "ULL": 2726,
      "ware": 2727,
      "sen": 2728,
      "cords": 2729,
      "ification": 2730,
      "term": 2731,
      "16": 2732,
      "ä¸": 2733,
      "PAR": 2734,
      "Ġchunk": 2735,
      "Ġextra": 2736,
      "Ġbound": 2737,
      "mission": 2738,
      "Ġfs": 2739,
      "Ġloc": 2740,
      "ker": 2741,
      "Ġcla": 2742,
      "part": 2743,
      "ĠĠĠĠĠ": 2744,
      "Ġconf": 2745,
      "eta": 2746,
      "Pool": 2747,
      "Ġwriter": 2748,
      "Unit": 2749,
      "acken": 2750,
      "ĠFor": 2751,
      "wner": 2752,
      "Ġtw": 2753,
      "aset": 2754,
      "oop": 2755,
      "Ġstorage": 2756,
      "Ġglobal": 2757,
      "Ġbatch": 2758,
      "ple": 2759,
      "dered": 2760,
      "Ġimplement": 2761,
      "mote": 2762,
      "Sign": 2763,
      "matches": 2764,
      "mport": 2765,
      "stream": 2766,
      "Ġmetr": 2767,
      "cheme": 2768,
      "acket": 2769,
      "ĠSprintf": 2770,
      "Ġbeen": 2771,
      "ins": 2772,
      "Inner": 2773,
      "Ġneed": 2774,
      "chedule": 2775,
      "heet": 2776,
      "AGE": 2777,
      "0000": 2778,
      "))": 2779,
      "Ġbased": 2780,
      "Ġinsert": 2781,
      "Num": 2782,
      "UM": 2783,
      "ĠDB": 2784,
      "Ġlower": 2785,
      "Impl": 2786,
      "plugin": 2787,
      "Ġob": 2788,
      "ĠPo": 2789,
      "tex": 2790,
      "Directory": 2791,
      "position": 2792,
      "Ġcell": 2793,
      "ambda": 2794,
      "Ġlook": 2795,
      "valu": 2796,
      "Ġyield": 2797,
      "net": 2798,
      "color": 2799,
      "Ass": 2800,
      "olver": 2801,
      "Det": 2802,
      "Ġoc": 2803,
      "Debug": 2804,
      "Ġremote": 2805,
      "Ġcfg": 2806,
      "Ġrece": 2807,
      "Ġ12": 2808,
      "Loader": 2809,
      "ĠGets": 2810,
      "Ġcalled": 2811,
      "open": 2812,
      "any": 2813,
      "Ġrequire": 2814,
      "Ġgraph": 2815,
      "dk": 2816,
      "Ġacce": 2817,
      "route": 2818,
      "greg": 2819,
      "Len": 2820,
      "ĠÐ": 2821,
      "unts": 2822,
      "Channel": 2823,
      "Ġresources": 2824,
      "Ġparts": 2825,
      "endar": 2826,
      "lace": 2827,
      "Ġpart": 2828,
      "struct": 2829,
      "Ġexpression": 2830,
      "://": 2831,
      "Ġlines": 2832,
      "ĠLA": 2833,
      "Ġcreated": 2834,
      "Ġtransform": 2835,
      "Ġ'#": 2836,
      "Ġnet": 2837,
      "Ġpan": 2838,
      "Constants": 2839,
      "Ġcons": 2840,
      "atures": 2841,
      "Color": 2842,
      "RA": 2843,
      "Ġimpl": 2844,
      "call": 2845,
      "Ġslice": 2846,
      "Descriptor": 2847,
      "Ġstrip": 2848,
      "ĠAs": 2849,
      "ĠPre": 2850,
      "ĠgetClass": 2851,
      "first": 2852,
      "Controller": 2853,
      "Min": 2854,
      "ason": 2855,
      "Ġapplication": 2856,
      "lag": 2857,
      "55": 2858,
      "Ġchain": 2859,
      "ĠgetId": 2860,
      "zz": 2861,
      "Ġdomain": 2862,
      "latform": 2863,
      "lines": 2864,
      "Role": 2865,
      "Ġinternal": 2866,
      "Fe": 2867,
      "Ġdown": 2868,
      "rou": 2869,
      "tivity": 2870,
      "jec": 2871,
      ":\"": 2872,
      "br": 2873,
      "Http": 2874,
      "tual": 2875,
      "ĠOut": 2876,
      "Ġmatches": 2877,
      "Mod": 2878,
      "Ġday": 2879,
      "Ġsystem": 2880,
      "cho": 2881,
      "lim": 2882,
      "tc": 2883,
      "istory": 2884,
      "lick": 2885,
      "ĠValidate": 2886,
      "Ġdi": 2887,
      "meta": 2888,
      "idden": 2889,
      "dentials": 2890,
      "Ġwait": 2891,
      "Ġrandom": 2892,
      "Ġdf": 2893,
      "Ġexpected": 2894,
      "esc": 2895,
      "Ġassoci": 2896,
      "ABLE": 2897,
      "section": 2898,
      "lug": 2899,
      "ĠRo": 2900,
      "Ver": 2901,
      "ancel": 2902,
      "Ġdisplay": 2903,
      "Ġtransaction": 2904,
      "Ġutils": 2905,
      "condition": 2906,
      "ĠIt": 2907,
      "Ġdefined": 2908,
      "BU": 2909,
      "Ġcannot": 2910,
      "ful": 2911,
      "Ġwindow": 2912,
      "ĠCode": 2913,
      "language": 2914,
      "Last": 2915,
      "Module": 2916,
      "metadata": 2917,
      "Any": 2918,
      "stract": 2919,
      "ured": 2920,
      "rency": 2921,
      "lode": 2922,
      "SH": 2923,
      "Uri": 2924,
      "Doc": 2925,
      "ifier": 2926,
      "Ġencoding": 2927,
      "Ġmethods": 2928,
      "ĠWeb": 2929,
      "JSON": 2930,
      "password": 2931,
      "connection": 2932,
      "Ġignore": 2933,
      "Ġthread": 2934,
      "comment": 2935,
      "go": 2936,
      "ĠToken": 2937,
      "Ġcluster": 2938,
      "mount": 2939,
      "ĠDis": 2940,
      "Queue": 2941,
      "Style": 2942,
      "upported": 2943,
      "Ġproc": 2944,
      "Val": 2945,
      "ogle": 2946,
      "Ġendpoint": 2947,
      "ground": 2948,
      "ayment": 2949,
      "Description": 2950,
      "au": 2951,
      "ackend": 2952,
      "Ġsection": 2953,
      "Ġreset": 2954,
      "Ġiterator": 2955,
      "description": 2956,
      "lt": 2957,
      "Ġlogging": 2958,
      "Ġregion": 2959,
      "Ġ9": 2960,
      "Ġword": 2961,
      "ateway": 2962,
      "marshal": 2963,
      "known": 2964,
      "redic": 2965,
      "ble": 2966,
      "Ġpe": 2967,
      ">\"": 2968,
      "email": 2969,
      "Ġcharacter": 2970,
      "ND": 2971,
      "GET": 2972,
      "Ġcb": 2973,
      "Ġ\".": 2974,
      "Ġprev": 2975,
      "ĠSh": 2976,
      "mark": 2977,
      "range": 2978,
      "Ġsubstring": 2979,
      "Schema": 2980,
      "Ġwrap": 2981,
      "ĠSets": 2982,
      "TML": 2983,
      "raint": 2984,
      "Ġbucket": 2985,
      "Ġpool": 2986,
      "Api": 2987,
      "ĠConvert": 2988,
      "Ġdescri": 2989,
      "Ġedge": 2990,
      "Ġthan": 2991,
      "ĠgetB": 2992,
      "ĠElement": 2993,
      "MP": 2994,
      "urity": 2995,
      "UID": 2996,
      "handler": 2997,
      "Ġusername": 2998,
      "ability": 2999,
      "Ġcondition": 3000,
      "Ġreader": 3001,
      "URI": 3002,
      "Ġprevious": 3003,
      "ĠOr": 3004,
      "',": 3005,
      "utable": 3006,
      "Ġfail": 3007,
      "env": 3008,
      "entry": 3009,
      "NO": 3010,
      "Ġact": 3011,
      "GER": 3012,
      "Headers": 3013,
      "Ġevents": 3014,
      "parator": 3015,
      "namespace": 3016,
      "ĠgetType": 3017,
      "ĠAuth": 3018,
      "med": 3019,
      "Ġdec": 3020,
      "ric": 3021,
      "Copy": 3022,
      "Frame": 3023,
      "role": 3024,
      "ii": 3025,
      "dices": 3026,
      "ordin": 3027,
      "18": 3028,
      "ĠindexOf": 3029,
      "ymbol": 3030,
      "Ġassign": 3031,
      "IC": 3032,
      "UP": 3033,
      "lags": 3034,
      "Ġclean": 3035,
      "Ġactive": 3036,
      "Ġweb": 3037,
      "inish": 3038,
      "Ġ...": 3039,
      "Ġprovider": 3040,
      "NS": 3041,
      "Ġrows": 3042,
      "alog": 3043,
      "Ġmain": 3044,
      "Ġind": 3045,
      "iler": 3046,
      "points": 3047,
      "Ġtokens": 3048,
      "Ġcore": 3049,
      "Ġconver": 3050,
      "bers": 3051,
      "Ġstep": 3052,
      "ĠDefault": 3053,
      "Ġdefinition": 3054,
      "mem": 3055,
      "Ġaddition": 3056,
      "achine": 3057,
      "Account": 3058,
      "OK": 3059,
      "ular": 3060,
      "nel": 3061,
      "Items": 3062,
      "Cre": 3063,
      "Unable": 3064,
      "hether": 3065,
      "Ġreport": 3066,
      "Ġfinally": 3067,
      "SP": 3068,
      "ĠPHP": 3069,
      "ween": 3070,
      "izer": 3071,
      "Ġalso": 3072,
      "IME": 3073,
      "entication": 3074,
      "Search": 3075,
      "frame": 3076,
      "ĠIP": 3077,
      "lative": 3078,
      "parts": 3079,
      "Ġcap": 3080,
      "imal": 3081,
      "Ġunit": 3082,
      "Warn": 3083,
      "ights": 3084,
      "package": 3085,
      "CTION": 3086,
      "pping": 3087,
      "ĠBuild": 3088,
      "ĠLoad": 3089,
      "ategy": 3090,
      "Json": 3091,
      "urse": 3092,
      "gor": 3093,
      "Operation": 3094,
      "Ġexplode": 3095,
      "Ġruntime": 3096,
      "ĠNot": 3097,
      "Ed": 3098,
      "Ġsequence": 3099,
      "ency": 3100,
      "utf": 3101,
      "ĠSQL": 3102,
      "Ġgra": 3103,
      "Ġ\"/\"": 3104,
      "Nodes": 3105,
      "Ġimplode": 3106,
      "Iterator": 3107,
      "irtual": 3108,
      "self": 3109,
      "Ġdtype": 3110,
      "expected": 3111,
      "arr": 3112,
      "Byte": 3113,
      "ĠAWS": 3114,
      "ĠStringBuilder": 3115,
      "pl": 3116,
      "Ġskip": 3117,
      "dle": 3118,
      "component": 3119,
      "Ġdst": 3120,
      "ward": 3121,
      "Ġpol": 3122,
      "Ġstrto": 3123,
      "Ġ16": 3124,
      "Ġopt": 3125,
      "Back": 3126,
      "Ġproxy": 3127,
      "ĠServer": 3128,
      "Ġconsole": 3129,
      "11": 3130,
      "Ġlambda": 3131,
      "']": 3132,
      "settings": 3133,
      "leted": 3134,
      "tered": 3135,
      "ĠWith": 3136,
      "Alias": 3137,
      "pattern": 3138,
      "Ġundefined": 3139,
      "Pattern": 3140,
      "rieve": 3141,
      "PER": 3142,
      "Ġhe": 3143,
      "Ġhelp": 3144,
      "etween": 3145,
      "cret": 3146,
      "ixed": 3147,
      "Ġrole": 3148,
      "results": 3149,
      "lower": 3150,
      "--------------------------------": 3151,
      "next": 3152,
      "Device": 3153,
      "Ġparsed": 3154,
      "cies": 3155,
      "Ġscript": 3156,
      "gorith": 3157,
      "Ġcommon": 3158,
      "cursi": 3159,
      "Ġtf": 3160,
      "Delete": 3161,
      "Mapping": 3162,
      "application": 3163,
      "MENT": 3164,
      "ĠClose": 3165,
      "Ġextends": 3166,
      "Ġlayer": 3167,
      "Ġstrlen": 3168,
      "INT": 3169,
      "js": 3170,
      "idx": 3171,
      "Post": 3172,
      "Route": 3173,
      "req": 3174,
      "stall": 3175,
      "Ġcs": 3176,
      "gr": 3177,
      "Ġgen": 3178,
      "{$": 3179,
      "eners": 3180,
      "can": 3181,
      "Ġextract": 3182,
      "active": 3183,
      "POST": 3184,
      "Ġsocket": 3185,
      "location": 3186,
      "lowed": 3187,
      "56": 3188,
      "Ġmu": 3189,
      "wise": 3190,
      "orization": 3191,
      "PRO": 3192,
      "KEY": 3193,
      "mer": 3194,
      "ĠSE": 3195,
      "stack": 3196,
      "copy": 3197,
      "ĠRuntimeException": 3198,
      "stination": 3199,
      "ĠTe": 3200,
      "Ġdone": 3201,
      "02": 3202,
      "Tags": 3203,
      "ĠNULL": 3204,
      "ler": 3205,
      "scape": 3206,
      "ĠInvalidArgumentException": 3207,
      "Annotation": 3208,
      "Ð°": 3209,
      "ged": 3210,
      "Ġtuple": 3211,
      "voke": 3212,
      "Ġspecific": 3213,
      "================": 3214,
      "andard": 3215,
      "Msg": 3216,
      "ĠState": 3217,
      "Ġconnect": 3218,
      "contents": 3219,
      "tions": 3220,
      "System": 3221,
      "select": 3222,
      "bl": 3223,
      "FO": 3224,
      "ĠExec": 3225,
      "raints": 3226,
      "Internal": 3227,
      "Addr": 3228,
      "IG": 3229,
      "04": 3230,
      "ĠFind": 3231,
      "Ġreflect": 3232,
      "ATH": 3233,
      "qual": 3234,
      "Ġbit": 3235,
      "iddle": 3236,
      "lip": 3237,
      "rect": 3238,
      "af": 3239,
      "Ġsee": 3240,
      "Ġdocs": 3241,
      "ĠDEFAULT": 3242,
      "ĠOpen": 3243,
      "Ġ'$": 3244,
      "Ġwhether": 3245,
      "tags": 3246,
      "tify": 3247,
      "domain": 3248,
      "enti": 3249,
      "sort": 3250,
      "Application": 3251,
      "alias": 3252,
      "Ġsorted": 3253,
      "Ġbinary": 3254,
      "****************": 3255,
      "Logger": 3256,
      "bar": 3257,
      "Ġsynchron": 3258,
      "do": 3259,
      "Ġgrid": 3260,
      "sw": 3261,
      "locale": 3262,
      "Ġtwo": 3263,
      "ols": 3264,
      "ĠPage": 3265,
      "handle": 3266,
      "Ġ\"-": 3267,
      "Ġclo": 3268,
      "print": 3269,
      "Ġaddr": 3270,
      "wn": 3271,
      "Vis": 3272,
      "Ġlanguage": 3273,
      "Top": 3274,
      "schema": 3275,
      "Ġprofile": 3276,
      "Ġstats": 3277,
      "rt": 3278,
      "Ġflags": 3279,
      "Transaction": 3280,
      "andlers": 3281,
      "lied": 3282,
      "ĠIndex": 3283,
      "bose": 3284,
      "Ġfollow": 3285,
      "ude": 3286,
      "inding": 3287,
      "Ġatom": 3288,
      "sa": 3289,
      "access": 3290,
      "admin": 3291,
      "variable": 3292,
      "collection": 3293,
      "ãģ": 3294,
      "Columns": 3295,
      "Ġzip": 3296,
      "US": 3297,
      "aly": 3298,
      "ĠConst": 3299,
      "Limit": 3300,
      "Tracing": 3301,
      "vlet": 3302,
      "errors": 3303,
      "tmp": 3304,
      "ĠImage": 3305,
      "Ġtimestamp": 3306,
      "task": 3307,
      "grade": 3308,
      "ĠSdk": 3309,
      "gle": 3310,
      "Ġcreates": 3311,
      "DO": 3312,
      "relation": 3313,
      "ĠTable": 3314,
      "Bean": 3315,
      "Results": 3316,
      "itle": 3317,
      "Ġterm": 3318,
      "ĠXML": 3319,
      "gments": 3320,
      "Ġthere": 3321,
      "zone": 3322,
      "ploy": 3323,
      "Ðµ": 3324,
      "asic": 3325,
      "One": 3326,
      "Storage": 3327,
      "man": 3328,
      "ived": 3329,
      "DK": 3330,
      "ĠBase": 3331,
      "alk": 3332,
      "Ġlistener": 3333,
      "ĠLong": 3334,
      "ometry": 3335,
      "Trace": 3336,
      "Ġplot": 3337,
      "Ġns": 3338,
      "eep": 3339,
      "dr": 3340,
      "gorithm": 3341,
      "Ġmask": 3342,
      "pth": 3343,
      "ĠAl": 3344,
      "åı": 3345,
      "Condition": 3346,
      "Control": 3347,
      "VE": 3348,
      "bstract": 3349,
      "ĠJson": 3350,
      "ĠLe": 3351,
      "Ġexpr": 3352,
      "Ġscale": 3353,
      "TracingEnabled": 3354,
      "buffer": 3355,
      "Multi": 3356,
      "Ġ\"<": 3357,
      "okie": 3358,
      "ĠisAny": 3359,
      "olute": 3360,
      "Ġ^": 3361,
      "Ġdatetime": 3362,
      "Elements": 3363,
      "height": 3364,
      "Bundle": 3365,
      "Language": 3366,
      "pack": 3367,
      "decode": 3368,
      "Ġpair": 3369,
      "manager": 3370,
      "Each": 3371,
      "rows": 3372,
      "Statement": 3373,
      "Ġcp": 3374,
      "Ġmessages": 3375,
      "ĠTYPE": 3376,
      "ĠRemove": 3377,
      "ĠBoolean": 3378,
      "top": 3379,
      "ĠLock": 3380,
      "ily": 3381,
      "ĠExt": 3382,
      "ĠisAnyTracingEnabled": 3383,
      "ship": 3384,
      "Ġinitial": 3385,
      "controller": 3386,
      "ictionary": 3387,
      "hain": 3388,
      "{}": 3389,
      "prec": 3390,
      "Ġprepare": 3391,
      "words": 3392,
      "build": 3393,
      "Ġwithout": 3394,
      "Ġarr": 3395,
      "Sha": 3396,
      "Ġecho": 3397,
      "Ġsome": 3398,
      "ĠByte": 3399,
      "UB": 3400,
      "style": 3401,
      "Only": 3402,
      "andid": 3403,
      "Namespace": 3404,
      "ĠAdds": 3405,
      "(\"": 3406,
      "Ð¾": 3407,
      "Ġunless": 3408,
      "duce": 3409,
      "orig": 3410,
      "delete": 3411,
      "lations": 3412,
      "Ġforce": 3413,
      "Ġwri": 3414,
      "bytes": 3415,
      "Ġabout": 3416,
      "Ġunique": 3417,
      "Select": 3418,
      "rowser": 3419,
      "ĠUnmarshal": 3420,
      "derer": 3421,
      "Space": 3422,
      "Ġmonth": 3423,
      "ww": 3424,
      "ORM": 3425,
      "Load": 3426,
      "Part": 3427,
      "Ġclone": 3428,
      "columns": 3429,
      "Sum": 3430,
      "custom": 3431,
      "ĠCommand": 3432,
      "Ġemail": 3433,
      "ank": 3434,
      "Ġrest": 3435,
      "Cur": 3436,
      "ĠAc": 3437,
      "Bound": 3438,
      "Ġreal": 3439,
      "ĠModel": 3440,
      "ither": 3441,
      "ĠOutput": 3442,
      "test": 3443,
      "Ġ'--": 3444,
      "ĠErrCode": 3445,
      "Ġpkg": 3446,
      "Ġmatrix": 3447,
      "Scope": 3448,
      "Box": 3449,
      "Ġ','": 3450,
      "pted": 3451,
      "Ġexample": 3452,
      "pendency": 3453,
      "Ġpad": 3454,
      "CA": 3455,
      "ditor": 3456,
      "document": 3457,
      "Ġretry": 3458,
      "ĠgetKey": 3459,
      "Ġrec": 3460,
      "Ġyour": 3461,
      "properties": 3462,
      "Ġlo": 3463,
      "Mo": 3464,
      "Ġextension": 3465,
      "rough": 3466,
      "ended": 3467,
      "rimary": 3468,
      "case": 3469,
      "ATOR": 3470,
      "ynam": 3471,
      "Ġpolicy": 3472,
      "MS": 3473,
      "#{": 3474,
      "ĠTraceComponent": 3475,
      "side": 3476,
      "utor": 3477,
      "Rep": 3478,
      "ĠResult": 3479,
      "const": 3480,
      "Ġ${": 3481,
      "Ġlat": 3482,
      "ĠTypeError": 3483,
      "ĠOb": 3484,
      "Handle": 3485,
      "Agent": 3486,
      "category": 3487,
      "Ġasync": 3488,
      "Ġstrpos": 3489,
      "mplete": 3490,
      "Ġcontroller": 3491,
      "Ġidentifier": 3492,
      "thon": 3493,
      "calar": 3494,
      "Ġdestination": 3495,
      "other": 3496,
      "Ġdiff": 3497,
      "CK": 3498,
      "Ġalias": 3499,
      "card": 3500,
      "ĠCON": 3501,
      "derr": 3502,
      "script": 3503,
      "SO": 3504,
      "Cluster": 3505,
      "ignment": 3506,
      "Groups": 3507,
      "bound": 3508,
      "Ġflag": 3509,
      "vis": 3510,
      "Ġsupported": 3511,
      "curity": 3512,
      "Ġcursor": 3513,
      "ĠCall": 3514,
      "achment": 3515,
      "ermissions": 3516,
      "ycle": 3517,
      "Ġsite": 3518,
      "definition": 3519,
      "ze": 3520,
      "Endpoint": 3521,
      "Ġrelation": 3522,
      "ince": 3523,
      "Ġpoints": 3524,
      "parser": 3525,
      "akes": 3526,
      "ĠRet": 3527,
      "Ġenumer": 3528,
      "Ġexc": 3529,
      "Ġsm": 3530,
      "wd": 3531,
      "scope": 3532,
      "dist": 3533,
      "ĠLocal": 3534,
      "ĠStart": 3535,
      "Ġ']": 3536,
      "ĠgetInstance": 3537,
      "Ġcommit": 3538,
      "ĠAttribute": 3539,
      "itude": 3540,
      "Ġdetails": 3541,
      "Folder": 3542,
      "Button": 3543,
      "Ġmd": 3544,
      "book": 3545,
      "Ġwant": 3546,
      "Ġcontents": 3547,
      "aml": 3548,
      "rary": 3549,
      "ĠPrint": 3550,
      "edia": 3551,
      "Ġdump": 3552,
      "Ġlabels": 3553,
      "ng": 3554,
      "Ġfill": 3555,
      "Extension": 3556,
      "iant": 3557,
      "ators": 3558,
      "ĠSec": 3559,
      "Ġshort": 3560,
      "job": 3561,
      "Struct": 3562,
      "Ġsecond": 3563,
      "Ġfil": 3564,
      "paths": 3565,
      "sl": 3566,
      "ANG": 3567,
      "system": 3568,
      "gram": 3569,
      "Ġsen": 3570,
      "lar": 3571,
      "Ġsig": 3572,
      "Ġrequests": 3573,
      "riteria": 3574,
      "Ġtrigger": 3575,
      "redicate": 3576,
      "ĠgetA": 3577,
      "enter": 3578,
      "SION": 3579,
      "ĠDouble": 3580,
      "Ġcompare": 3581,
      "Ġiss": 3582,
      "ragment": 3583,
      "Ġfactory": 3584,
      "Wrapper": 3585,
      "ĠInt": 3586,
      "Ġ($": 3587,
      "Ġpaths": 3588,
      "50": 3589,
      "ĠDI": 3590,
      "Ġprops": 3591,
      "Ġcomment": 3592,
      "Ġwarning": 3593,
      "Domain": 3594,
      "Ġvolume": 3595,
      "resses": 3596,
      "HTTP": 3597,
      "ho": 3598,
      "ssible": 3599,
      "Database": 3600,
      "Password": 3601,
      "QU": 3602,
      "acy": 3603,
      "project": 3604,
      "Ġhead": 3605,
      "ĉĉĉ": 3606,
      "olution": 3607,
      "umb": 3608,
      "ĠinvalidParams": 3609,
      "Ġbetween": 3610,
      "PC": 3611,
      "className": 3612,
      "channel": 3613,
      "init": 3614,
      "ĠChar": 3615,
      "ĠInfo": 3616,
      "ES": 3617,
      "Ġmy": 3618,
      "Ġattrs": 3619,
      "Ġamazon": 3620,
      "Long": 3621,
      "Project": 3622,
      "alization": 3623,
      "Ġallowed": 3624,
      "Ġlocale": 3625,
      "Title": 3626,
      "total": 3627,
      "ATA": 3628,
      "Ġsymbol": 3629,
      "Ġev": 3630,
      "Ġmapping": 3631,
      "ClientException": 3632,
      "]+": 3633,
      "Ġselected": 3634,
      "connect": 3635,
      "reshold": 3636,
      "(?": 3637,
      "Layout": 3638,
      "ym": 3639,
      "rowable": 3640,
      "Ġ{}\"": 3641,
      "ving": 3642,
      "Proxy": 3643,
      "servable": 3644,
      "Ġspace": 3645,
      "Ġfolder": 3646,
      "cr": 3647,
      "cmd": 3648,
      "folder": 3649,
      "acity": 3650,
      "iver": 3651,
      "creen": 3652,
      "EM": 3653,
      "ĠNumber": 3654,
      "Ġprintln": 3655,
      "PRE": 3656,
      "lash": 3657,
      "ĠforEach": 3658,
      "Ġrules": 3659,
      "apping": 3660,
      "icode": 3661,
      "dim": 3662,
      "Ġmember": 3663,
      "Ġpr": 3664,
      "rup": 3665,
      "Ġentries": 3666,
      "}/": 3667,
      "Network": 3668,
      "FILE": 3669,
      "ier": 3670,
      "inder": 3671,
      "identifier": 3672,
      "true": 3673,
      "ategor": 3674,
      "icon": 3675,
      "asure": 3676,
      "pose": 3677,
      "pendencies": 3678,
      "ĠOperation": 3679,
      "Ġcalcul": 3680,
      "tories": 3681,
      "uch": 3682,
      "Ġoccur": 3683,
      "Web": 3684,
      "gen": 3685,
      "uter": 3686,
      "Ġinterval": 3687,
      "ZE": 3688,
      "Ġmedi": 3689,
      "ĠGroup": 3690,
      "ClassName": 3691,
      "Events": 3692,
      "Ġsent": 3693,
      "det": 3694,
      "Resources": 3695,
      "Ġowner": 3696,
      "([": 3697,
      "ĠĠĠĠĠĠĠĠĠĠĠĠĠĠĠĠĠĠĠĠĠĠĠ": 3698,
      "Details": 3699,
      "ĠEntry": 3700,
      "First": 3701,
      "ãĤ": 3702,
      "Sequence": 3703,
      "Ġsynchronized": 3704,
      "Ġadded": 3705,
      "Fail": 3706,
      "Plugin": 3707,
      "Ġdispatch": 3708,
      "umpy": 3709,
      "supported": 3710,
      "join": 3711,
      "Ġhasattr": 3712,
      "ĠDateTime": 3713,
      "PTION": 3714,
      "ik": 3715,
      "web": 3716,
      "Ġdesc": 3717,
      "ited": 3718,
      "Window": 3719,
      "Ġemit": 3720,
      "ifest": 3721,
      "Ġgetattr": 3722,
      "tim": 3723,
      "Ġdelta": 3724,
      "Ġgroups": 3725,
      "'t": 3726,
      "vars": 3727,
      "çļ": 3728,
      "ĠFilter": 3729,
      "src": 3730,
      "Ġ<!": 3731,
      "çļĦ": 3732,
      "ĠSDK": 3733,
      "ites": 3734,
      "multi": 3735,
      "ĠTask": 3736,
      "24": 3737,
      "org": 3738,
      "ĠContent": 3739,
      "Thread": 3740,
      "ODE": 3741,
      "over": 3742,
      "Script": 3743,
      "Ġ':'": 3744,
      "question": 3745,
      "Ġcert": 3746,
      "Ġunder": 3747,
      "Required": 3748,
      "bed": 3749,
      "Enum": 3750,
      "GroupName": 3751,
      "diff": 3752,
      "Ġyear": 3753,
      "auto": 3754,
      "Ġmissing": 3755,
      "ĠgetProperty": 3756,
      "thing": 3757,
      "velo": 3758,
      "HE": 3759,
      "helper": 3760,
      "Ġredirect": 3761,
      "Ġoptional": 3762,
      "exec": 3763,
      "anner": 3764,
      "Cal": 3765,
      "Interval": 3766,
      "criter": 3767,
      "coder": 3768,
      "Profile": 3769,
      "Ġflush": 3770,
      "buf": 3771,
      "ĠUnlock": 3772,
      "only": 3773,
      "Ġperform": 3774,
      "Locale": 3775,
      "has": 3776,
      "ï¼": 3777,
      "Ġpopul": 3778,
      "]\"": 3779,
      "Ġchan": 3780,
      "termine": 3781,
      "ĠFunction": 3782,
      "ases": 3783,
      "Active": 3784,
      "Man": 3785,
      "Op": 3786,
      "username": 3787,
      "crypt": 3788,
      "Repository": 3789,
      "Ġlike": 3790,
      "lap": 3791,
      "Ġfilepath": 3792,
      "Left": 3793,
      "now": 3794,
      "Ġdriver": 3795,
      "ãĥ": 3796,
      "Bucket": 3797,
      "Ġts": 3798,
      "Write": 3799,
      "Return": 3800,
      "Ġstatement": 3801,
      "Ġalpha": 3802,
      "right": 3803,
      "Custom": 3804,
      "ĠBlock": 3805,
      "CTOR": 3806,
      "ORT": 3807,
      "Ġannotation": 3808,
      "ĠMet": 3809,
      "Open": 3810,
      "Ġselector": 3811,
      "lang": 3812,
      "Ġ\"_": 3813,
      "Current": 3814,
      "Ġpanic": 3815,
      "INE": 3816,
      "directory": 3817,
      "ialog": 3818,
      "Ġfuture": 3819,
      "nected": 3820,
      "Ġ-=": 3821,
      "ĠHeader": 3822,
      "Ġsegment": 3823,
      "Ġadditional": 3824,
      "Ġactual": 3825,
      "cast": 3826,
      "dio": 3827,
      "layer": 3828,
      "uppress": 3829,
      "ĠURI": 3830,
      "Ġinteger": 3831,
      "Ġrepository": 3832,
      "Ġuntil": 3833,
      "EXT": 3834,
      "XT": 3835,
      "Generator": 3836,
      "NotFoundException": 3837,
      "left": 3838,
      "Ġifc": 3839,
      "Ġå": 3840,
      "Ġseq": 3841,
      "cursive": 3842,
      "Ġsignature": 3843,
      "Ġ200": 3844,
      "Ġimg": 3845,
      "STR": 3846,
      "Ġenvironment": 3847,
      "Ġmultiple": 3848,
      "ĠJob": 3849,
      "Ġ';": 3850,
      "umeric": 3851,
      "ĠSession": 3852,
      "ian": 3853,
      "Ġpipe": 3854,
      "Ph": 3855,
      "Ġconcat": 3856,
      "board": 3857,
      "Ġdataset": 3858,
      "holder": 3859,
      "track": 3860,
      "sumer": 3861,
      "ĠPAR": 3862,
      "Ġ>>>": 3863,
      "LASS": 3864,
      "ĠSdkClientException": 3865,
      "ĠclassName": 3866,
      "course": 3867,
      "Ġelem": 3868,
      "ling": 3869,
      "anization": 3870,
      "mbers": 3871,
      "timeout": 3872,
      "alys": 3873,
      "success": 3874,
      "Ġassociated": 3875,
      "Ġloop": 3876,
      "Ġtt": 3877,
      "rate": 3878,
      "amily": 3879,
      "Ġregex": 3880,
      "ĠOn": 3881,
      "notations": 3882,
      "Exists": 3883,
      "Segment": 3884,
      "ĠInter": 3885,
      "ĠisDebug": 3886,
      "ĠDebug": 3887,
      "roy": 3888,
      "HER": 3889,
      "close": 3890,
      "ards": 3891,
      "ntax": 3892,
      "step": 3893,
      "ĠNon": 3894,
      "Ġstdout": 3895,
      "Ġrunning": 3896,
      "onitor": 3897,
      "Could": 3898,
      "ĠRef": 3899,
      "/%": 3900,
      "ottom": 3901,
      "DS": 3902,
      "ĠRegister": 3903,
      "Ġcurl": 3904,
      "hook": 3905,
      "Non": 3906,
      "Ġeither": 3907,
      "Cell": 3908,
      "Ġvariables": 3909,
      "arator": 3910,
      "debug": 3911,
      "Ġpod": 3912,
      "Ġ'-'": 3913,
      "ÑĤ": 3914,
      "ĠHandle": 3915,
      "Ġdraw": 3916,
      "Cap": 3917,
      "classes": 3918,
      "ĠProcess": 3919,
      "parameter": 3920,
      "loc": 3921,
      "Ġhelper": 3922,
      "serialize": 3923,
      "men": 3924,
      "Ġdistance": 3925,
      "Ġverbose": 3926,
      "menu": 3927,
      "nodes": 3928,
      "ĠisEntry": 3929,
      "Av": 3930,
      "ux": 3931,
      "orter": 3932,
      "span": 3933,
      "norm": 3934,
      "Ġtrack": 3935,
      "otal": 3936,
      "Ġduration": 3937,
      "Ġclazz": 3938,
      "Ġthem": 3939,
      "ĠisEntryEnabled": 3940,
      "Ġ::": 3941,
      "Ġcontrol": 3942,
      "groups": 3943,
      "=%": 3944,
      "where": 3945,
      "ĠText": 3946,
      "Ġplace": 3947,
      "tep": 3948,
      "Ġalt": 3949,
      "shift": 3950,
      "Ġround": 3951,
      "Ġ201": 3952,
      "ĠgetAttribute": 3953,
      "Ġgr": 3954,
      "TO": 3955,
      "Loc": 3956,
      "respon": 3957,
      "show": 3958,
      "Dist": 3959,
      "ullable": 3960,
      "ROM": 3961,
      "olve": 3962,
      "ĠTag": 3963,
      "ĠStream": 3964,
      "SET": 3965,
      "Mark": 3966,
      "Ġnormalize": 3967,
      "////////////////": 3968,
      "Ġdt": 3969,
      "util": 3970,
      "ĠLink": 3971,
      "Sync": 3972,
      "QUE": 3973,
      "OST": 3974,
      "fn": 3975,
      "ural": 3976,
      "Ġvalidation": 3977,
      "Ġreg": 3978,
      "Lower": 3979,
      "Sc": 3980,
      "Ġindent": 3981,
      "Ġaccept": 3982,
      "Arg": 3983,
      "Ð¸": 3984,
      "Ġoverride": 3985,
      "Future": 3986,
      "ĠContainer": 3987,
      "Ġbundle": 3988,
      "80": 3989,
      "ACK": 3990,
      "VALUE": 3991,
      "Pan": 3992,
      "uplic": 3993,
      "Del": 3994,
      "ities": 3995,
      "Ġprimary": 3996,
      "Ġkind": 3997,
      "VI": 3998,
      "alth": 3999,
      "Ġinner": 4000,
      "Ġgoto": 4001,
      "account": 4002,
      "Ġnumpy": 4003,
      "aged": 4004,
      "Ġpl": 4005,
      "Ġcompute": 4006,
      "Ġsync": 4007,
      "ĠChecks": 4008,
      "ĠPut": 4009,
      "sample": 4010,
      "ĠVersion": 4011,
      "Volume": 4012,
      "ĠLOGGER": 4013,
      "Ġlookup": 4014,
      "jection": 4015,
      "opts": 4016,
      "Ġoper": 4017,
      "Identity": 4018,
      "just": 4019,
      "PATH": 4020,
      "Ġ#{": 4021,
      "Ġrelease": 4022,
      "ĠJoin": 4023,
      "graph": 4024,
      "required": 4025,
      "fp": 4026,
      "Ġuuid": 4027,
      "Expr": 4028,
      "verter": 4029,
      "ticle": 4030,
      "ITY": 4031,
      "reference": 4032,
      "Adapter": 4033,
      "ube": 4034,
      "ĠConnection": 4035,
      "split": 4036,
      "20": 4037,
      "ĠDo": 4038,
      "SQL": 4039,
      "del": 4040,
      "Raw": 4041,
      "Ġsubject": 4042,
      "cluded": 4043,
      "Ġcached": 4044,
      "mask": 4045,
      "Ġupdated": 4046,
      "Ġwithin": 4047,
      "Pair": 4048,
      "*'": 4049,
      "Ġevalu": 4050,
      "LOW": 4051,
      "Ġarch": 4052,
      "erson": 4053,
      "Ġlayout": 4054,
      "Ġ\".\"": 4055,
      "ĠAbstract": 4056,
      "arm": 4057,
      "mag": 4058,
      "Ġids": 4059,
      "loaded": 4060,
      "Graph": 4061,
      "verage": 4062,
      "romise": 4063,
      "vm": 4064,
      "Ġcompile": 4065,
      "Ġends": 4066,
      "az": 4067,
      "bit": 4068,
      "Resolver": 4069,
      "Ġensure": 4070,
      "Ġupload": 4071,
      "Ġmetric": 4072,
      "Ġmatching": 4073,
      "Ġstrtolower": 4074,
      "Ġdepth": 4075,
      "ĠEntity": 4076,
      "Ġhref": 4077,
      "ategories": 4078,
      "ĠisDebugEnabled": 4079,
      "loader": 4080,
      "zip": 4081,
      "ĠMo": 4082,
      "maining": 4083,
      "product": 4084,
      "Ġmean": 4085,
      "criteria": 4086,
      "rep": 4087,
      "LECT": 4088,
      "Ignore": 4089,
      "OF": 4090,
      "ĠFormat": 4091,
      "ribution": 4092,
      "Stats": 4093,
      "Email": 4094,
      "DER": 4095,
      "Children": 4096,
      "Ġmodels": 4097,
      "Zone": 4098,
      "ynamic": 4099,
      "iddleware": 4100,
      "ĠWrap": 4101,
      "sm": 4102,
      "Ġgu": 4103,
      "head": 4104,
      "XML": 4105,
      "Ġenumerate": 4106,
      "Ġhigh": 4107,
      "Errors": 4108,
      "mbed": 4109,
      "Idx": 4110,
      "Selector": 4111,
      "storage": 4112,
      "Ġ\"[": 4113,
      "Ġep": 4114,
      "Ġmove": 4115,
      "Day": 4116,
      "tempt": 4117,
      "Dire": 4118,
      "LETE": 4119,
      "cap": 4120,
      "PA": 4121,
      "Ġhex": 4122,
      "Parts": 4123,
      "Ġbutt": 4124,
      "cp": 4125,
      "ĠOptional": 4126,
      "33": 4127,
      "Ġbutton": 4128,
      "ĠPer": 4129,
      "media": 4130,
      "PARATOR": 4131,
      "Ġsetup": 4132,
      "atten": 4133,
      "ĠAd": 4134,
      "000": 4135,
      "Ġpublish": 4136,
      "Ġagent": 4137,
      "Ġstartswith": 4138,
      "vc": 4139,
      "Ġvm": 4140,
      "sitive": 4141,
      "Product": 4142,
      "tities": 4143,
      "Ġbean": 4144,
      "crement": 4145,
      "Tx": 4146,
      "Ġtab": 4147,
      "Ġtopic": 4148,
      "Ġbest": 4149,
      "permission": 4150,
      "ĠgetData": 4151,
      "Ġmanager": 4152,
      "Ġupper": 4153,
      "Warnings": 4154,
      "ĠLogger": 4155,
      "ibility": 4156,
      "Ġthey": 4157,
      "ĠWork": 4158,
      "alysis": 4159,
      "Ġmath": 4160,
      "failed": 4161,
      "Ġconstructor": 4162,
      "IO": 4163,
      "invalid": 4164,
      "ĠER": 4165,
      "ĠMax": 4166,
      "Ġawait": 4167,
      ":'": 4168,
      "conf": 4169,
      "Ġclasses": 4170,
      "ram": 4171,
      "Ġusage": 4172,
      "Me": 4173,
      "plot": 4174,
      "Ġgp": 4175,
      "Ġcancel": 4176,
      "ĠSib": 4177,
      "ĠvalueOf": 4178,
      "Auto": 4179,
      "Relation": 4180,
      "Ġexternal": 4181,
      "rag": 4182,
      "builder": 4183,
      "ĠHashMap": 4184,
      "ĠGenerate": 4185,
      "imp": 4186,
      "Rows": 4187,
      "Ġencoded": 4188,
      "author": 4189,
      "extension": 4190,
      "ĠIniti": 4191,
      "send": 4192,
      "ĠgetRequest": 4193,
      "eeded": 4194,
      "Ġescape": 4195,
      "configuration": 4196,
      "Ġverify": 4197,
      "pk": 4198,
      "ĠSign": 4199,
      "Registry": 4200,
      "Ġ'_'": 4201,
      "otst": 4202,
      "dat": 4203,
      "sec": 4204,
      "tition": 4205,
      "uted": 4206,
      "ARN": 4207,
      "Timestamp": 4208,
      "USER": 4209,
      "logger": 4210,
      "ĠgetPath": 4211,
      "igration": 4212,
      "Security": 4213,
      "kwargs": 4214,
      "ĠSpec": 4215,
      "Ġds": 4216,
      "Ġexport": 4217,
      "ining": 4218,
      "Cannot": 4219,
      "Ġregistry": 4220,
      "Ġcomplete": 4221,
      "Ġsalt": 4222,
      "ges": 4223,
      "Chain": 4224,
      "covery": 4225,
      "Ġdot": 4226,
      "ĠTR": 4227,
      "atio": 4228,
      "Ġpersist": 4229,
      "!\"": 4230,
      "ĠThrowable": 4231,
      "formed": 4232,
      "ixel": 4233,
      "ĠgetConfig": 4234,
      "Layer": 4235,
      "Ġwrapper": 4236,
      "Seri": 4237,
      "IM": 4238,
      "anti": 4239,
      "LS": 4240,
      "Validation": 4241,
      "Ġquote": 4242,
      "Ġms": 4243,
      "Html": 4244,
      "ECT": 4245,
      "Ġenable": 4246,
      "oft": 4247,
      "alan": 4248,
      "Ġchanges": 4249,
      "provider": 4250,
      "sage": 4251,
      "off": 4252,
      "ĠProperty": 4253,
      "ĠObservable": 4254,
      "Ġfilters": 4255,
      "InputStream": 4256,
      "Ġter": 4257,
      "Category": 4258,
      "fully": 4259,
      "ĠAND": 4260,
      "ĠSibTr": 4261,
      "Ġfont": 4262,
      "Db": 4263,
      "leep": 4264,
      "Ġjs": 4265,
      "policy": 4266,
      "cc": 4267,
      "Desc": 4268,
      "unit": 4269,
      "used": 4270,
      "Ġcss": 4271,
      "CP": 4272,
      "utdown": 4273,
      "Ġcategory": 4274,
      "device": 4275,
      "Clo": 4276,
      "dec": 4277,
      "Ġcommerce": 4278,
      "alle": 4279,
      "profile": 4280,
      "counts": 4281,
      "aved": 4282,
      "Ġperiod": 4283,
      "SERVER": 4284,
      "Engine": 4285,
      "Ġæ": 4286,
      "Rules": 4287,
      "extra": 4288,
      "timestamp": 4289,
      "chedul": 4290,
      "ĠIterator": 4291,
      "termin": 4292,
      "Ġ1000": 4293,
      "ĠAction": 4294,
      "the": 4295,
      "Ġzero": 4296,
      "ĠGo": 4297,
      "Ġenabled": 4298,
      "TR": 4299,
      "Ġbin": 4300,
      "Ġ32": 4301,
      "firm": 4302,
      "methods": 4303,
      "AND": 4304,
      "Ġsq": 4305,
      "Ġvector": 4306,
      "istics": 4307,
      "ĠcharAt": 4308,
      "hs": 4309,
      "Ġty": 4310,
      "Ġsuffix": 4311,
      "checked": 4312,
      "iteral": 4313,
      "ecause": 4314,
      "Ġinstall": 4315,
      "HERE": 4316,
      "actions": 4317,
      "vers": 4318,
      "Ġhow": 4319,
      "Ġpeer": 4320,
      "ense": 4321,
      "Ġbox": 4322,
      "mapping": 4323,
      "/\"": 4324,
      "essed": 4325,
      "eps": 4326,
      "Xml": 4327,
      "ĠBe": 4328,
      "Ġdefaults": 4329,
      "NOT": 4330,
      "Ġbranch": 4331,
      "Ġdirname": 4332,
      "Ġauthor": 4333,
      "Ġscan": 4334,
      "),": 4335,
      "angle": 4336,
      "Ġwidget": 4337,
      "Paths": 4338,
      "Ġdrop": 4339,
      "Ġrelative": 4340,
      "opt": 4341,
      ".*": 4342,
      "Ġap": 4343,
      "ĠHTML": 4344,
      "Ġservices": 4345,
      "ĠSimple": 4346,
      "Ð½": 4347,
      "Ġrel": 4348,
      "OP": 4349,
      "ront": 4350,
      "Ġconversion": 4351,
      "quires": 4352,
      "Track": 4353,
      "Ġ\"$": 4354,
      "Member": 4355,
      "Ġfollowing": 4356,
      "Ġdictionary": 4357,
      "Ġseries": 4358,
      "eries": 4359,
      "ĠDocument": 4360,
      "Ġonce": 4361,
      "css": 4362,
      "mi": 4363,
      "otstrap": 4364,
      "licit": 4365,
      "ains": 4366,
      "trace": 4367,
      "ĠHas": 4368,
      "ployment": 4369,
      "Ġtranslate": 4370,
      "ross": 4371,
      "ĠET": 4372,
      "ĠAmazon": 4373,
      "Ġplatform": 4374,
      "atcher": 4375,
      "Ġprob": 4376,
      "Strategy": 4377,
      "ĠItem": 4378,
      "clo": 4379,
      "ĠtoArray": 4380,
      "Ġpack": 4381,
      "Ġ20": 4382,
      "SSION": 4383,
      "Ġrs": 4384,
      "resources": 4385,
      "rics": 4386,
      "Snapshot": 4387,
      "served": 4388,
      "ĠgetE": 4389,
      "Ġoperator": 4390,
      "ĠPa": 4391,
      "Driver": 4392,
      "gl": 4393,
      "Ġlon": 4394,
      "ĠBig": 4395,
      "havi": 4396,
      "Ġdiv": 4397,
      "gt": 4398,
      "Ġpacket": 4399,
      "illis": 4400,
      "Ġengine": 4401,
      "Ġchanged": 4402,
      "ĠYou": 4403,
      "Ġcurr": 4404,
      "cryption": 4405,
      "reen": 4406,
      "Ġcat": 4407,
      "ĠInternal": 4408,
      "ASE": 4409,
      "my": 4410,
      "member": 4411,
      "ĠPRO": 4412,
      "ensor": 4413,
      "Ifc": 4414,
      "Down": 4415,
      "22": 4416,
      "ĠProtocol": 4417,
      "des": 4418,
      "force": 4419,
      "SEPARATOR": 4420,
      "Ġmetrics": 4421,
      "Ġlogic": 4422,
      "database": 4423,
      "Ġcomb": 4424,
      "Success": 4425,
      "lack": 4426,
      "DIR": 4427,
      "created": 4428,
      "Ġinitialize": 4429,
      "Ġè": 4430,
      "Ġregistered": 4431,
      "ipping": 4432,
      "andidate": 4433,
      "ithub": 4434,
      "Ġ~": 4435,
      "ĠSearch": 4436,
      "precated": 4437,
      "Ġinstances": 4438,
      "Ġrot": 4439,
      "tect": 4440,
      "Prop": 4441,
      "ters": 4442,
      "Integer": 4443,
      "Ġzone": 4444,
      "ĠIS": 4445,
      "Mapper": 4446,
      "Ġremoved": 4447,
      "ffic": 4448,
      "lank": 4449,
      "Ġmaster": 4450,
      "Ġstructure": 4451,
      "remove": 4452,
      "logy": 4453,
      "/{": 4454,
      "aj": 4455,
      "uper": 4456,
      "Ġserialize": 4457,
      "Socket": 4458,
      "adoc": 4459,
      "edit": 4460,
      "ĠMulti": 4461,
      "Ġequal": 4462,
      "Ġusers": 4463,
      "Ġspan": 4464,
      "ĠgetUser": 4465,
      "ĠLevel": 4466,
      "ĠhasNext": 4467,
      "Ġprototype": 4468,
      "Admin": 4469,
      "ĠView": 4470,
      "Ġmemory": 4471,
      "Ġca": 4472,
      "Ġseconds": 4473,
      "ĠHandler": 4474,
      "iff": 4475,
      "gb": 4476,
      "Batch": 4477,
      "former": 4478,
      "stat": 4479,
      "END": 4480,
      "After": 4481,
      "Ġpresent": 4482,
      "shape": 4483,
      "conv": 4484,
      "ĠCom": 4485,
      "Ġcorrespon": 4486,
      "Ġcounter": 4487,
      "Wh": 4488,
      "ĠStr": 4489,
      "ecycle": 4490,
      "ernel": 4491,
      "ĠMem": 4492,
      "ĠSuppress": 4493,
      "Comment": 4494,
      "ws": 4495,
      "Matrix": 4496,
      "ene": 4497,
      "Ġprogress": 4498,
      "SL": 4499,
      "ĠMAX": 4500,
      "Ġvisit": 4501,
      "Ġlogin": 4502,
      "Ġradi": 4503,
      "ĠApplication": 4504,
      "Ġsetting": 4505,
      "Ġrepresentation": 4506,
      "argin": 4507,
      "Ġstderr": 4508,
      "ĠresourceGroupName": 4509,
      "ĠAll": 4510,
      "Ġthrough": 4511,
      "SIZE": 4512,
      "...": 4513,
      "Ġinv": 4514,
      "clus": 4515,
      "incip": 4516,
      "Ġcould": 4517,
      "ffered": 4518,
      "Ġrequested": 4519,
      "Initi": 4520,
      "Certificate": 4521,
      "Ġ'@": 4522,
      "Ġcontaining": 4523,
      "Ġinvoke": 4524,
      "Ġele": 4525,
      "Cla": 4526,
      "Menu": 4527,
      "Ġpossible": 4528,
      "Stat": 4529,
      "vas": 4530,
      "ĠEnd": 4531,
      "filters": 4532,
      "include": 4533,
      "safe": 4534,
      "Total": 4535,
      "interface": 4536,
      "payload": 4537,
      "ĠNO": 4538,
      "Counter": 4539,
      "unch": 4540,
      "Ġ11": 4541,
      "Ġbecause": 4542,
      "Ġdisk": 4543,
      "Ġreverse": 4544,
      ":%": 4545,
      "PUT": 4546,
      "ĠApi": 4547,
      "eros": 4548,
      "nector": 4549,
      "Rate": 4550,
      "Ġsecret": 4551,
      "ĠCache": 4552,
      "OutputStream": 4553,
      "Ne": 4554,
      "Ġsim": 4555,
      "Ġsnapshot": 4556,
      "dential": 4557,
      "CS": 4558,
      "Ġsafe": 4559,
      "åĪ": 4560,
      "leton": 4561,
      "ĠNote": 4562,
      "px": 4563,
      "writer": 4564,
      "td": 4565,
      "cli": 4566,
      "Modified": 4567,
      "Ġpid": 4568,
      "Ġ{$": 4569,
      "ĠServiceResponse": 4570,
      "ÑĢ": 4571,
      "ĠPARAM": 4572,
      "cu": 4573,
      "'\"": 4574,
      "Encoding": 4575,
      "grid": 4576,
      "tifact": 4577,
      "CTORY": 4578,
      "Ġnamed": 4579,
      "Widget": 4580,
      "Bo": 4581,
      "Ġreply": 4582,
      "Ġvia": 4583,
      "https": 4584,
      "####": 4585,
      "ifecycle": 4586,
      "DATE": 4587,
      "ose": 4588,
      "Right": 4589,
      "Ġtheir": 4590,
      "Ġcollect": 4591,
      "TIME": 4592,
      "tten": 4593,
      "ĠSchema": 4594,
      "ĠFROM": 4595,
      "Ġfig": 4596,
      "ighb": 4597,
      "herit": 4598,
      "Conf": 4599,
      "Ġidentity": 4600,
      "prop": 4601,
      "Ġrecords": 4602,
      "cipient": 4603,
      "ĠVer": 4604,
      "Ġ\"--": 4605,
      "Ġcoordin": 4606,
      "Summary": 4607,
      "Are": 4608,
      "dn": 4609,
      "Ġproduct": 4610,
      "FIX": 4611,
      "Attr": 4612,
      "Can": 4613,
      "Ġmedia": 4614,
      "ĠFI": 4615,
      "Ġorigin": 4616,
      "Ġmatcher": 4617,
      "Methods": 4618,
      "Orig": 4619,
      "Ġfinish": 4620,
      "ĠsetAttribute": 4621,
      "ĠUtil": 4622,
      "fetch": 4623,
      "ifiers": 4624,
      "ĠMod": 4625,
      "Ġdownload": 4626,
      "Ġinstead": 4627,
      "Unknown": 4628,
      "ĠVar": 4629,
      "ANCE": 4630,
      "metr": 4631,
      "ĠĠĠĠĠĠĠĠĠ": 4632,
      "Ġagain": 4633,
      "ĠConfiguration": 4634,
      "ressed": 4635,
      "Float": 4636,
      "Join": 4637,
      "messages": 4638,
      "Ġstored": 4639,
      "_'": 4640,
      "Ġsupport": 4641,
      "Ġotherwise": 4642,
      "arning": 4643,
      "(\\": 4644,
      "wh": 4645,
      "ĠSuppressWarnings": 4646,
      "ĠCUR": 4647,
      "]'": 4648,
      "FileName": 4649,
      "Exist": 4650,
      "Build": 4651,
      "Ġmaximum": 4652,
      "DF": 4653,
      "Before": 4654,
      "19": 4655,
      "COL": 4656,
      "Ġamount": 4657,
      "area": 4658,
      "Objects": 4659,
      "ALSE": 4660,
      "QUEST": 4661,
      "rv": 4662,
      "WithContext": 4663,
      "Ġexclude": 4664,
      "ookie": 4665,
      "Ġsimple": 4666,
      "Ġrc": 4667,
      "ipher": 4668,
      "Ġadds": 4669,
      "Term": 4670,
      "button": 4671,
      "children": 4672,
      "();": 4673,
      "Ġfire": 4674,
      "abs": 4675,
      "login": 4676,
      "Feature": 4677,
      "OUT": 4678,
      "Ġsecurity": 4679,
      "Iter": 4680,
      "ĠDuration": 4681,
      "Inv": 4682,
      "ĠNOT": 4683,
      "tical": 4684,
      "Servlet": 4685,
      "Tokens": 4686,
      "Ġindices": 4687,
      "Ġcalls": 4688,
      "addr": 4689,
      "Missing": 4690,
      "Ġbackend": 4691,
      "alled": 4692,
      "OS": 4693,
      "BUG": 4694,
      "Flag": 4695,
      "CL": 4696,
      "Ġedit": 4697,
      "network": 4698,
      "Ġdeploy": 4699,
      "dering": 4700,
      "bin": 4701,
      "Ġcause": 4702,
      "Cms": 4703,
      "labels": 4704,
      "ĠInstance": 4705,
      "found": 4706,
      "Notification": 4707,
      "ĠgetDefault": 4708,
      "uting": 4709,
      "Ġhook": 4710,
      "users": 4711,
      "initi": 4712,
      "Ġadmin": 4713,
      "ĠIfc": 4714,
      "rib": 4715,
      "ways": 4716,
      "struction": 4717,
      "crypted": 4718,
      "Ġchr": 4719,
      "igit": 4720,
      "ĠCop": 4721,
      "IF": 4722,
      "Use": 4723,
      "validator": 4724,
      "Ð¾Ð": 4725,
      "install": 4726,
      "conditions": 4727,
      "Ġsuch": 4728,
      "Pointer": 4729,
      "Ġest": 4730,
      "ui": 4731,
      "rieves": 4732,
      "Ġsignal": 4733,
      "Classes": 4734,
      "subject": 4735,
      "ĠMessages": 4736,
      "avadoc": 4737,
      "Gateway": 4738,
      "ideo": 4739,
      "ĠPh": 4740,
      "Arn": 4741,
      "Ġchecks": 4742,
      "Constraints": 4743,
      "13": 4744,
      "Ġps": 4745,
      "icro": 4746,
      "Ġpred": 4747,
      "Ġreason": 4748,
      "Ġexpand": 4749,
      "Ġimplements": 4750,
      "atest": 4751,
      "gon": 4752,
      "pad": 4753,
      "mented": 4754,
      "?'": 4755,
      "Ġindic": 4756,
      "Ġsk": 4757,
      "display": 4758,
      "ONE": 4759,
      "DATA": 4760,
      "ĠAccess": 4761,
      "scribe": 4762,
      "LOG": 4763,
      "Arguments": 4764,
      "ends": 4765,
      "Display": 4766,
      "ĠExample": 4767,
      "FC": 4768,
      "ĠTemplate": 4769,
      "Ġconfigured": 4770,
      "Ġtile": 4771,
      "Ġ60": 4772,
      "cogn": 4773,
      "ĠId": 4774,
      "ĠHost": 4775,
      "slug": 4776,
      "vals": 4777,
      "ferred": 4778,
      "URE": 4779,
      "yles": 4780,
      "ĠCloud": 4781,
      "Step": 4782,
      "onom": 4783,
      "Ġdefine": 4784,
      "Ġmag": 4785,
      "upport": 4786,
      "sertion": 4787,
      "batch": 4788,
      "requ": 4789,
      "ĠNext": 4790,
      "ocus": 4791,
      "ä»": 4792,
      "stats": 4793,
      "udit": 4794,
      "Ġdev": 4795,
      "Ġattach": 4796,
      "ĠIter": 4797,
      "Ġsupplied": 4798,
      "nb": 4799,
      "ĠTra": 4800,
      "izes": 4801,
      "ĠWh": 4802,
      "Ġcookie": 4803,
      "cover": 4804,
      "Ġprom": 4805,
      "ĠBo": 4806,
      "proxy": 4807,
      "public": 4808,
      "ĠTree": 4809,
      "Ġlin": 4810,
      "Ġscheme": 4811,
      "Ġrt": 4812,
      "lator": 4813,
      "Ġdoesn": 4814,
      "Ġscore": 4815,
      "ĠThread": 4816,
      "ĠPoint": 4817,
      "):": 4818,
      "ĠColumn": 4819,
      "pass": 4820,
      "ĠBuilder": 4821,
      "Ġfeatures": 4822,
      "ĠWHERE": 4823,
      "Ġworker": 4824,
      "Ġcli": 4825,
      "caling": 4826,
      "ens": 4827,
      "lier": 4828,
      "proc": 4829,
      "Ġ(%": 4830,
      "ison": 4831,
      "ALL": 4832,
      "ĠgetString": 4833,
      "ness": 4834,
      "ĠPri": 4835,
      "ĠstartsWith": 4836,
      "Region": 4837,
      "save": 4838,
      "ĠdefaultValue": 4839,
      "Ġacc": 4840,
      "><": 4841,
      "theme": 4842,
      "Site": 4843,
      "ĠSource": 4844,
      "Ġcomponents": 4845,
      "ĠSI": 4846,
      "Ġ'\\\\'": 4847,
      "ART": 4848,
      "limiter": 4849,
      "emon": 4850,
      "alpha": 4851,
      "Ġretrieve": 4852,
      "dev": 4853,
      "Ġ'__": 4854,
      "after": 4855,
      "Period": 4856,
      "ĠKeyError": 4857,
      "Core": 4858,
      "Ġrefresh": 4859,
      "Rece": 4860,
      "dest": 4861,
      "Bag": 4862,
      "ĠStop": 4863,
      "light": 4864,
      "Ġdetermine": 4865,
      "ĠAss": 4866,
      "Permission": 4867,
      "ĠgetField": 4868,
      "CHE": 4869,
      "ĠUp": 4870,
      "Edit": 4871,
      "This": 4872,
      "He": 4873,
      "Ġjust": 4874,
      "empty": 4875,
      "Ġpd": 4876,
      "Ġdeep": 4877,
      "ferent": 4878,
      "Ġ24": 4879,
      "Ġblob": 4880,
      "ĠApply": 4881,
      "Ren": 4882,
      "Ġupdates": 4883,
      "Ġcorrect": 4884,
      "Props": 4885,
      "eer": 4886,
      "scale": 4887,
      "Ġkeep": 4888,
      "HTML": 4889,
      "uring": 4890,
      "Remove": 4891,
      "depth": 4892,
      "ĠFALSE": 4893,
      "ĠGET": 4894,
      "Ġactions": 4895,
      "asc": 4896,
      "ĠBuffer": 4897,
      "ĠgetResource": 4898,
      "rest": 4899,
      "patcher": 4900,
      "ĠInputStream": 4901,
      "driver": 4902,
      "Allowed": 4903,
      "encoding": 4904,
      "Ġcallable": 4905,
      "Ġcalling": 4906,
      "uest": 4907,
      "Ġclosed": 4908,
      "axis": 4909,
      "uses": 4910,
      "Ġfunctions": 4911,
      "alancer": 4912,
      "Public": 4913,
      "events": 4914,
      "63": 4915,
      "ilt": 4916,
      "Ġpoly": 4917,
      "socket": 4918,
      "txt": 4919,
      "ociation": 4920,
      "ĠgetParent": 4921,
      "Ġloader": 4922,
      "sn": 4923,
      "Ġbro": 4924,
      "Ġcredentials": 4925,
      "alizes": 4926,
      "CODE": 4927,
      "cheduler": 4928,
      "ntries": 4929,
      "14": 4930,
      "Ġcc": 4931,
      "andling": 4932,
      "ServiceResponse": 4933,
      "DateTime": 4934,
      "Ġmb": 4935,
      "StateException": 4936,
      "Qual": 4937,
      "Messages": 4938,
      "ĠYii": 4939,
      "\":": 4940,
      "Ġ15": 4941,
      "widget": 4942,
      "ond": 4943,
      "VALID": 4944,
      ")\\": 4945,
      "pto": 4946,
      "desc": 4947,
      "available": 4948,
      "Changed": 4949,
      "Ġdirect": 4950,
      "pires": 4951,
      "Ġaggreg": 4952,
      "ĠGe": 4953,
      "Ġsix": 4954,
      "Ġdirection": 4955,
      "Converter": 4956,
      "Ġdescriptor": 4957,
      "ï¼Į": 4958,
      "Ġmk": 4959,
      "Destination": 4960,
      "15": 4961,
      "legate": 4962,
      "report": 4963,
      "oices": 4964,
      "async": 4965,
      "stmt": 4966,
      "Ġselection": 4967,
      "Ġbl": 4968,
      "Sql": 4969,
      "Ġanother": 4970,
      "Ñģ": 4971,
      "Ġbits": 4972,
      "Ġclick": 4973,
      "NG": 4974,
      "Vector": 4975,
      ";\"": 4976,
      "mpt": 4977,
      "Test": 4978,
      "Ġqual": 4979,
      "bind": 4980,
      "ookup": 4981,
      "ĠNetwork": 4982,
      "igits": 4983,
      "chunk": 4984,
      "rocade": 4985,
      "tempts": 4986,
      "ĠGP": 4987,
      "Ġcertificate": 4988,
      "Ġcharacters": 4989,
      "Millis": 4990,
      "oom": 4991,
      "incipal": 4992,
      "gative": 4993,
      "Ġ\",\"": 4994,
      "pet": 4995,
      "Ġnest": 4996,
      "ATUS": 4997,
      "ĠDeep": 4998,
      "Price": 4999,
      "Ġfp": 5000,
      "Ġrelated": 5001,
      "Ġimplementation": 5002,
      "Ġextensions": 5003,
      "ĠEncode": 5004,
      "Ġasset": 5005,
      "Ġpending": 5006,
      "Ġexecution": 5007,
      "ĠgetContent": 5008,
      "pop": 5009,
      "ĠisValid": 5010,
      "CR": 5011,
      "register": 5012,
      "FS": 5013,
      "ĠScope": 5014,
      "Ġeditor": 5015,
      "Ġcommands": 5016,
      "ById": 5017,
      "ĠgetCurrent": 5018,
      "arison": 5019,
      "CESS": 5020,
      "seconds": 5021,
      "chor": 5022,
      "peat": 5023,
      "LOPT": 5024,
      "Ġiv": 5025,
      "Ġbasename": 5026,
      "Over": 5027,
      "SELECT": 5028,
      "Ġspecify": 5029,
      "Ġsn": 5030,
      "numeric": 5031,
      "Ġ[]": 5032,
      "!'": 5033,
      "letes": 5034,
      "ues": 5035,
      "ĠArgument": 5036,
      "Metric": 5037,
      "come": 5038,
      "Ġdom": 5039,
      "ĠExecute": 5040,
      "Validator": 5041,
      "verts": 5042,
      "ĠJavadoc": 5043,
      "Full": 5044,
      "Ġ'='": 5045,
      "licies": 5046,
      "Ġ'[": 5047,
      "Ġschedule": 5048,
      "Ġpromise": 5049,
      "256": 5050,
      "ony": 5051,
      "Ġ'\"'": 5052,
      "æķ": 5053,
      "Ġws": 5054,
      "IDs": 5055,
      "Ġreject": 5056,
      "Ġinputs": 5057,
      "Ġfix": 5058,
      "outer": 5059,
      "Ġloaded": 5060,
      "Ġzeros": 5061,
      "Ġlow": 5062,
      "Global": 5063,
      "brocade": 5064,
      "wrap": 5065,
      "Ġ\":": 5066,
      "æĸ": 5067,
      "lain": 5068,
      "Ip": 5069,
      "Ġ\\\"": 5070,
      "Ġface": 5071,
      "Ġ255": 5072,
      "salt": 5073,
      "original": 5074,
      "ĠUN": 5075,
      "Parse": 5076,
      "ĠDecode": 5077,
      "aries": 5078,
      "Ġcenter": 5079,
      "fy": 5080,
      "Ġpatch": 5081,
      "TEXT": 5082,
      "Ġadapter": 5083,
      "Ġxception": 5084,
      "Flags": 5085,
      "acts": 5086,
      "ĠVAL": 5087,
      "Ġconfigure": 5088,
      "Ġseparator": 5089,
      "ours": 5090,
      "åĲ": 5091,
      "Ġglob": 5092,
      "ĠMan": 5093,
      "HT": 5094,
      "RECTORY": 5095,
      "ffec": 5096,
      "Ġflow": 5097,
      "CLASS": 5098,
      "Ġtasks": 5099,
      "Ġgenerated": 5100,
      "Ġcm": 5101,
      "Close": 5102,
      "tool": 5103,
      "Ġem": 5104,
      "Ġbar": 5105,
      "ops": 5106,
      "Failure": 5107,
      "BO": 5108,
      "Ġ')": 5109,
      "Double": 5110,
      "cel": 5111,
      "seq": 5112,
      "Ġuid": 5113,
      "FIG": 5114,
      "Filename": 5115,
      "Go": 5116,
      "Ġdeleted": 5117,
      "Ġalloc": 5118,
      "ĠOptions": 5119,
      "Ġperm": 5120,
      "Bar": 5121,
      "avig": 5122,
      "NE": 5123,
      "Pr": 5124,
      "rules": 5125,
      "Ġicon": 5126,
      "ĠRoute": 5127,
      "Ġfast": 5128,
      "Word": 5129,
      "sequence": 5130,
      "Ġcloud": 5131,
      "posite": 5132,
      "details": 5133,
      "03": 5134,
      "77": 5135,
      "Formatter": 5136,
      "vide": 5137,
      "Ptr": 5138,
      "Usage": 5139,
      "Ġrepresenting": 5140,
      "ĠSplit": 5141,
      "reams": 5142,
      "Where": 5143,
      "eekday": 5144,
      "UTF": 5145,
      "lush": 5146,
      "Processor": 5147,
      "IS": 5148,
      "Dict": 5149,
      "Ġgoogle": 5150,
      "ELD": 5151,
      "Flow": 5152,
      "Ġreduce": 5153,
      "ture": 5154,
      "ca": 5155,
      "Ġtimes": 5156,
      "Dim": 5157,
      "ĠStorage": 5158,
      "Ġnb": 5159,
      "ĠDO": 5160,
      "FT": 5161,
      "ĠExpression": 5162,
      "mime": 5163,
      "Ġmodules": 5164,
      "Ġdifferent": 5165,
      "Report": 5166,
      "è¯": 5167,
      "aging": 5168,
      "uplicate": 5169,
      "ĠHelper": 5170,
      "ITE": 5171,
      "METH": 5172,
      "ually": 5173,
      "Ġevery": 5174,
      "Ġsuccessfully": 5175,
      "tw": 5176,
      "ĠOp": 5177,
      "=\\\"": 5178,
      "Ġtransport": 5179,
      "enabled": 5180,
      "Ġ'&": 5181,
      "ĠMarshal": 5182,
      "Ġkw": 5183,
      "Ġmodified": 5184,
      "ĠSw": 5185,
      "Ġstmt": 5186,
      "imer": 5187,
      "Ġpointer": 5188,
      "conn": 5189,
      "score": 5190,
      "UND": 5191,
      "Ġleg": 5192,
      "Ġ'</": 5193,
      "ĠConstants": 5194,
      "Ġinject": 5195,
      "ĠUT": 5196,
      "Ġdirec": 5197,
      "ĠCURLOPT": 5198,
      "ĠChannel": 5199,
      "Short": 5200,
      "ĠSeri": 5201,
      "Binding": 5202,
      "Ġrespon": 5203,
      "operation": 5204,
      "Atom": 5205,
      "layout": 5206,
      "Ġboth": 5207,
      "Ġweight": 5208,
      "DEFAULT": 5209,
      "COM": 5210,
      "ĠMake": 5211,
      "ilities": 5212,
      "Ġlisteners": 5213,
      "Duration": 5214,
      "secret": 5215,
      "Ġins": 5216,
      "tices": 5217,
      "Ġdays": 5218,
      "Plan": 5219,
      "ĠKEY": 5220,
      "endor": 5221,
      "LL": 5222,
      "aunch": 5223,
      "sheet": 5224,
      "Operator": 5225,
      "Extra": 5226,
      "pool": 5227,
      "Ġcorresponding": 5228,
      "dic": 5229,
      "ĠReader": 5230,
      "ĠfileName": 5231,
      "FORM": 5232,
      "Ġtool": 5233,
      "Ġfree": 5234,
      "METHOD": 5235,
      "expression": 5236,
      "complete": 5237,
      "find": 5238,
      "forms": 5239,
      "oriz": 5240,
      "elements": 5241,
      "cm": 5242,
      "Protocol": 5243,
      "ĠConverts": 5244,
      "Upload": 5245,
      "CI": 5246,
      "ĠCP": 5247,
      "signed": 5248,
      "Symbol": 5249,
      "Ġ.=": 5250,
      "Single": 5251,
      "JECT": 5252,
      "ulk": 5253,
      "Ġmenu": 5254,
      "ysql": 5255,
      "serr": 5256,
      "Acce": 5257,
      "Ġscalar": 5258,
      "ĠparseInt": 5259,
      "Ġcast": 5260,
      "Ġlatest": 5261,
      "matrix": 5262,
      "Temp": 5263,
      "tid": 5264,
      "Ġbrowser": 5265,
      "Ġcoll": 5266,
      "ĠRender": 5267,
      "\"'": 5268,
      "Ġeval": 5269,
      "ĠDOM": 5270,
      "corator": 5271,
      "chain": 5272,
      "ĠDec": 5273,
      "ĠgetTable": 5274,
      "Ġcreating": 5275,
      "Ġ??": 5276,
      "tection": 5277,
      "Ġjav": 5278,
      "Proto": 5279,
      "Ġbounds": 5280,
      "UNT": 5281,
      "SA": 5282,
      "pace": 5283,
      "hape": 5284,
      "Information": 5285,
      "Ġbeing": 5286,
      "Ġimages": 5287,
      "ĠPrintln": 5288,
      "Fn": 5289,
      "Signature": 5290,
      "Ġblocks": 5291,
      "ĠProject": 5292,
      "ĠWriter": 5293,
      "Ġawserr": 5294,
      "Ġsummary": 5295,
      "year": 5296,
      "Ġ'*'": 5297,
      "Import": 5298,
      "Assign": 5299,
      "rec": 5300,
      "trl": 5301,
      "ĠSubElement": 5302,
      "before": 5303,
      "ĠgetAll": 5304,
      "IVE": 5305,
      "Ġwords": 5306,
      "Instances": 5307,
      "Ġss": 5308,
      "ridge": 5309,
      "Ġdigest": 5310,
      "Ġfit": 5311,
      "Ġrect": 5312,
      "Progress": 5313,
      "operator": 5314,
      "Metrics": 5315,
      "region": 5316,
      "Ġcos": 5317,
      "onical": 5318,
      "Such": 5319,
      "Ġtick": 5320,
      "CRE": 5321,
      "Opts": 5322,
      ":\\": 5323,
      "Comple": 5324,
      "mmutable": 5325,
      "ĠFloat": 5326,
      "lies": 5327,
      "Environment": 5328,
      "Ġsym": 5329,
      "yntax": 5330,
      "ĠaddAll": 5331,
      "Ġce": 5332,
      "ĠBack": 5333,
      "Ġnotification": 5334,
      "Ge": 5335,
      "Ġneeded": 5336,
      "Area": 5337,
      "ĠeZ": 5338,
      "Ġfi": 5339,
      "flag": 5340,
      "Ġ\":\"": 5341,
      "cores": 5342,
      "Own": 5343,
      "pr": 5344,
      "Points": 5345,
      "Ġmachine": 5346,
      "Ġdelay": 5347,
      "upper": 5348,
      "cording": 5349,
      "Ġpi": 5350,
      "Ġhistory": 5351,
      "Secret": 5352,
      "non": 5353,
      "ĠIllegalStateException": 5354,
      "udio": 5355,
      "Regist": 5356,
      "allowed": 5357,
      "Login": 5358,
      "och": 5359,
      "Ġvirtual": 5360,
      "Runtime": 5361,
      "Ġ\"\\\"": 5362,
      "UUID": 5363,
      "Ġfname": 5364,
      "window": 5365,
      "Ġremaining": 5366,
      "Sk": 5367,
      "AY": 5368,
      "teg": 5369,
      "defaults": 5370,
      "Owner": 5371,
      "Ġconsumer": 5372,
      "ffect": 5373,
      "ĠisArray": 5374,
      "factory": 5375,
      "Ġmembers": 5376,
      "Icon": 5377,
      "atible": 5378,
      "ĠsetValue": 5379,
      "ĠCopy": 5380,
      "Ġsec": 5381,
      "Media": 5382,
      "ĠStore": 5383,
      "unique": 5384,
      "Ġstandard": 5385,
      "vs": 5386,
      "Ġsing": 5387,
      "Ġtri": 5388,
      "Ġwatch": 5389,
      "flags": 5390,
      "REQUEST": 5391,
      "Ġdecl": 5392,
      "ĠRemo": 5393,
      "Ġdisable": 5394,
      "Ġformatter": 5395,
      "Ġlex": 5396,
      "agin": 5397,
      "IgnoreCase": 5398,
      "ĠHtml": 5399,
      "Ġgot": 5400,
      "Ġnotify": 5401,
      "ADER": 5402,
      "ĠOR": 5403,
      "tial": 5404,
      "velope": 5405,
      "Panel": 5406,
      "ĠTRUE": 5407,
      "havior": 5408,
      "IST": 5409,
      "repo": 5410,
      "Ġcalculate": 5411,
      "Vars": 5412,
      "tools": 5413,
      "mmar": 5414,
      "WithServiceResponse": 5415,
      "WithServiceResponseAsync": 5416,
      "rel": 5417,
      "Ġunits": 5418,
      "callable": 5419,
      "ĠERROR": 5420,
      "Conn": 5421,
      "Ġplt": 5422,
      "igr": 5423,
      "ĠMatch": 5424,
      "FilePath": 5425,
      "Ġinf": 5426,
      "Norm": 5427,
      "Tick": 5428,
      "Ġ30": 5429,
      "Comparator": 5430,
      ">\\": 5431,
      "å®": 5432,
      "Buf": 5433,
      "Ġvars": 5434,
      "oly": 5435,
      "Ġgit": 5436,
      "mediate": 5437,
      "ĠgetParameter": 5438,
      "ierarch": 5439,
      "short": 5440,
      "Hook": 5441,
      "ĠCluster": 5442,
      "Pages": 5443,
      "pired": 5444,
      "Setting": 5445,
      "Ġgenerator": 5446,
      "Ġreceived": 5447,
      "æķ°": 5448,
      "tab": 5449,
      "ĠCalendar": 5450,
      "Ġsin": 5451,
      "Ġ14": 5452,
      "sal": 5453,
      "utils": 5454,
      "ĠRetrieve": 5455,
      "Ġsubscription": 5456,
      "lared": 5457,
      "Ġsleep": 5458,
      "Ax": 5459,
      "Ġnd": 5460,
      "Ġrate": 5461,
      "Year": 5462,
      "pid": 5463,
      "Ġrequires": 5464,
      "ignore": 5465,
      "Ġalgorithm": 5466,
      "clean": 5467,
      "parsed": 5468,
      "Listeners": 5469,
      "Ġslot": 5470,
      "Ab": 5471,
      "aniti": 5472,
      "ĠDatabase": 5473,
      "ĠMin": 5474,
      "Uint": 5475,
      "}.": 5476,
      "Ġhy": 5477,
      "Ġ|=": 5478,
      "ĠAuto": 5479,
      "ĠJava": 5480,
      "Chunk": 5481,
      "ĠCalcul": 5482,
      "Ret": 5483,
      "History": 5484,
      "imate": 5485,
      "LowerCase": 5486,
      "pings": 5487,
      "allow": 5488,
      "ĠChange": 5489,
      "aign": 5490,
      "validate": 5491,
      "UI": 5492,
      "></": 5493,
      "float": 5494,
      "allel": 5495,
      "ĠAg": 5496,
      "Ġshift": 5497,
      "orary": 5498,
      "Ġcurrently": 5499,
      "pb": 5500,
      "])": 5501,
      "ĠDeepCopy": 5502,
      "remote": 5503,
      "atype": 5504,
      "CF": 5505,
      "Ġpermissions": 5506,
      "stop": 5507,
      "Ġneeds": 5508,
      "Ġ64": 5509,
      "ĠColor": 5510,
      "El": 5511,
      "Ġsubmit": 5512,
      "TY": 5513,
      "ĠgetOption": 5514,
      "WOR": 5515,
      "sv": 5516,
      "ĠRecord": 5517,
      "ĠAddress": 5518,
      "mac": 5519,
      "Ġpermission": 5520,
      "dence": 5521,
      "Ġuses": 5522,
      "Entries": 5523,
      "ampaign": 5524,
      "Ġgeometry": 5525,
      "ĠPOST": 5526,
      "Ġrouter": 5527,
      "Scale": 5528,
      "ĠLine": 5529,
      "Ġbel": 5530,
      "Kind": 5531,
      "Services": 5532,
      "Ġseed": 5533,
      "Ġleast": 5534,
      "Ġembed": 5535,
      "Ġauthentic": 5536,
      "Ġexceptions": 5537,
      "rase": 5538,
      "Ġargv": 5539,
      "Ġhostname": 5540,
      "interval": 5541,
      "DD": 5542,
      "Ġut": 5543,
      "imation": 5544,
      "ied": 5545,
      "ĠParameter": 5546,
      "EClass": 5547,
      "ĠVector": 5548,
      "ĠBody": 5549,
      "ĠPost": 5550,
      "center": 5551,
      "MA": 5552,
      "Ġenviron": 5553,
      "ĠGraph": 5554,
      "Ġchart": 5555,
      "rees": 5556,
      "Ġphp": 5557,
      "23": 5558,
      "Ġsep": 5559,
      "STANCE": 5560,
      "Ġtok": 5561,
      "ĠLabel": 5562,
      "iration": 5563,
      "Ġnote": 5564,
      "ested": 5565,
      "currency": 5566,
      "Bounds": 5567,
      "Many": 5568,
      "poser": 5569,
      "Ġauthentication": 5570,
      "roles": 5571,
      "umul": 5572,
      "olved": 5573,
      "Ġaccording": 5574,
      "Ġarchive": 5575,
      "çĶ": 5576,
      "ĠArrays": 5577,
      "Ġhist": 5578,
      "ĠRep": 5579,
      "long": 5580,
      "Ġfd": 5581,
      "rypto": 5582,
      "ĠAS": 5583,
      "\\.": 5584,
      "utation": 5585,
      "Ġformatted": 5586,
      "esses": 5587,
      "ĠComponent": 5588,
      "agement": 5589,
      "thread": 5590,
      "Ġmime": 5591,
      "ĠCOM": 5592,
      "tl": 5593,
      "urface": 5594,
      "img": 5595,
      "Ġtyp": 5596,
      "Ġbr": 5597,
      "attrs": 5598,
      "Character": 5599,
      "Oper": 5600,
      "upload": 5601,
      "wri": 5602,
      "Filters": 5603,
      "Ġflatten": 5604,
      "Ġ\\'": 5605,
      "Ġmock": 5606,
      "Ġmost": 5607,
      "Ġstrconv": 5608,
      "60": 5609,
      "inner": 5610,
      "Ġvari": 5611,
      "URCE": 5612,
      "tax": 5613,
      "ĠcontainsKey": 5614,
      "cms": 5615,
      "VERSION": 5616,
      "ĠDIRECTORY": 5617,
      "Remote": 5618,
      "Ġcharset": 5619,
      "Ġsqrt": 5620,
      "aemon": 5621,
      "Ġhandlers": 5622,
      "WN": 5623,
      "Ġrand": 5624,
      "ĠCollections": 5625,
      "Ġplan": 5626,
      "ĠStringUtils": 5627,
      "Commit": 5628,
      "fil": 5629,
      "global": 5630,
      "mplemented": 5631,
      "Month": 5632,
      "OB": 5633,
      "Ġbackup": 5634,
      "Ġresolved": 5635,
      "Lines": 5636,
      "peri": 5637,
      "generated": 5638,
      "cessary": 5639,
      "Constraint": 5640,
      "eno": 5641,
      "Ġpub": 5642,
      "Ġside": 5643,
      "Declar": 5644,
      "ands": 5645,
      "tifi": 5646,
      "lex": 5647,
      "ĠNAME": 5648,
      "Pod": 5649,
      "25": 5650,
      "Section": 5651,
      "Sort": 5652,
      "pend": 5653,
      "unchecked": 5654,
      "dl": 5655,
      "Ġuseful": 5656,
      "Ġmac": 5657,
      "Suffix": 5658,
      "ĠQu": 5659,
      "cookie": 5660,
      "Ġsamples": 5661,
      "ĠappendChild": 5662,
      "raction": 5663,
      "Locator": 5664,
      "]*": 5665,
      "sist": 5666,
      "Env": 5667,
      "modified": 5668,
      "Ġknown": 5669,
      "exist": 5670,
      "cfg": 5671,
      "append": 5672,
      "Holder": 5673,
      "ĠNoSuch": 5674,
      "Ġunicode": 5675,
      "Lib": 5676,
      "userid": 5677,
      "Bit": 5678,
      "Ġweights": 5679,
      "ao": 5680,
      "modules": 5681,
      "dt": 5682,
      "Ġpixel": 5683,
      "MD": 5684,
      "EOL": 5685,
      "ĠCOL": 5686,
      "Available": 5687,
      "cision": 5688,
      "Ġangle": 5689,
      "ĠValidation": 5690,
      "Mask": 5691,
      "INFO": 5692,
      "Ġsince": 5693,
      "illing": 5694,
      "itespace": 5695,
      "Arr": 5696,
      "Ġfeed": 5697,
      "ToString": 5698,
      "UTH": 5699,
      "second": 5700,
      "ĠWebAPI": 5701,
      "Ġpadding": 5702,
      "comple": 5703,
      "Ġpartial": 5704,
      "matic": 5705,
      "assign": 5706,
      "ĠKind": 5707,
      "ongo": 5708,
      "ĠCommon": 5709,
      "rupted": 5710,
      "delta": 5711,
      "sRequest": 5712,
      "Imp": 5713,
      "Decimal": 5714,
      "Ġway": 5715,
      "Ġlv": 5716,
      "ula": 5717,
      "ĠInfof": 5718,
      "ĠBatch": 5719,
      "repository": 5720,
      "ĠtoLowerCase": 5721,
      "Consumer": 5722,
      "Uuid": 5723,
      "MT": 5724,
      "records": 5725,
      "Ġ13": 5726,
      "ĠgetStatus": 5727,
      "endpoint": 5728,
      "PS": 5729,
      "ĠXml": 5730,
      "related": 5731,
      "ByName": 5732,
      "transaction": 5733,
      "Regex": 5734,
      "Ġpriority": 5735,
      "Ġshared": 5736,
      "bsolute": 5737,
      "Ġgeneric": 5738,
      "counter": 5739,
      "Tool": 5740,
      "alyz": 5741,
      "ODO": 5742,
      "tn": 5743,
      "serve": 5744,
      "ĠequalsIgnoreCase": 5745,
      "Ġvertex": 5746,
      "ĠRemoves": 5747,
      "common": 5748,
      "datetime": 5749,
      "BE": 5750,
      "Ġoptim": 5751,
      "coming": 5752,
      "Ġ19": 5753,
      "ĠVALUE": 5754,
      "abilities": 5755,
      "Vertex": 5756,
      "Ġcols": 5757,
      "Into": 5758,
      "Ġmet": 5759,
      "ĠmethodName": 5760,
      "fieldName": 5761,
      "Selection": 5762,
      "Ġfailure": 5763,
      "Ġforward": 5764,
      "Di": 5765,
      "Ġsending": 5766,
      "pared": 5767,
      "roid": 5768,
      "loor": 5769,
      "Font": 5770,
      "ULE": 5771,
      "cular": 5772,
      "missing": 5773,
      "std": 5774,
      "NotNull": 5775,
      "Ġrestore": 5776,
      "ATCH": 5777,
      "beta": 5778,
      "ĠNamespace": 5779,
      "requency": 5780,
      "(%": 5781,
      "ito": 5782,
      "Labels": 5783,
      "priority": 5784,
      "Ġvalidator": 5785,
      "Slice": 5786,
      "Ġtakes": 5787,
      "Ġpages": 5788,
      "Binary": 5789,
      "font": 5790,
      "Ġmatched": 5791,
      "Boolean": 5792,
      "ĠReplace": 5793,
      "Ġscroll": 5794,
      "Ġdestroy": 5795,
      "ĠgetNode": 5796,
      "ĠImport": 5797,
      "Ġnumer": 5798,
      "Ġlinks": 5799,
      "Rel": 5800,
      "Ġrv": 5801,
      "Ġui": 5802,
      "Ġred": 5803,
      "amo": 5804,
      "Ġalways": 5805,
      "Ġfactor": 5806,
      "REG": 5807,
      "Ġmat": 5808,
      "ptr": 5809,
      "ential": 5810,
      "require": 5811,
      "Authorization": 5812,
      "real": 5813,
      "antity": 5814,
      "ĠPromise": 5815,
      "ives": 5816,
      "Ġdimension": 5817,
      "month": 5818,
      "ĠFe": 5819,
      "ĠUUID": 5820,
      "bucket": 5821,
      "quote": 5822,
      "Ġdependency": 5823,
      "Ġtd": 5824,
      "Ġwin": 5825,
      "Ġnested": 5826,
      "ĠPy": 5827,
      "ĠEX": 5828,
      "primary": 5829,
      "scriber": 5830,
      "Ġii": 5831,
      "Ġtables": 5832,
      "Ġgenerates": 5833,
      "ocker": 5834,
      "vely": 5835,
      "aint": 5836,
      "Ġfiltered": 5837,
      "Has": 5838,
      "Org": 5839,
      "Ġcaller": 5840,
      "Ġhandling": 5841,
      "åıĸ": 5842,
      "ctx": 5843,
      "AV": 5844,
      "ĠgetTime": 5845,
      "Ġgl": 5846,
      "utex": 5847,
      "ĠFetch": 5848,
      "ĠorderBy": 5849,
      "(...": 5850,
      "Ġminimum": 5851,
      "ceptor": 5852,
      "olt": 5853,
      "eded": 5854,
      "symbol": 5855,
      "ale": 5856,
      "CONT": 5857,
      "STRING": 5858,
      "Transfer": 5859,
      "ĠBytes": 5860,
      "Diff": 5861,
      "objects": 5862,
      "Ġedges": 5863,
      "tivate": 5864,
      "loop": 5865,
      "variables": 5866,
      "publish": 5867,
      "ĠWe": 5868,
      "help": 5869,
      "Ġpredicate": 5870,
      "Schedule": 5871,
      "Bind": 5872,
      "Tab": 5873,
      "rf": 5874,
      "ĠMarshall": 5875,
      "wer": 5876,
      "oto": 5877,
      "azy": 5878,
      "sk": 5879,
      "none": 5880,
      "Init": 5881,
      "ĠBuffered": 5882,
      "like": 5883,
      "ĠgetFile": 5884,
      "ention": 5885,
      "Ġord": 5886,
      "Cloud": 5887,
      "hip": 5888,
      "[$": 5889,
      "iases": 5890,
      "Ġstarting": 5891,
      "destination": 5892,
      "Connect": 5893,
      "asset": 5894,
      "Ġlar": 5895,
      "uuid": 5896,
      "stit": 5897,
      "alf": 5898,
      "Ġflat": 5899,
      "Ġretval": 5900,
      "ĠgetQuery": 5901,
      "ĠUpdates": 5902,
      "ĠTransaction": 5903,
      "cached": 5904,
      "Ġscreen": 5905,
      "statement": 5906,
      "æľ": 5907,
      "17": 5908,
      "Detail": 5909,
      "Ġreceiver": 5910,
      "direction": 5911,
      "ĠDevice": 5912,
      "Memory": 5913,
      "Payload": 5914,
      "alance": 5915,
      "links": 5916,
      "Ġ);": 5917,
      "fill": 5918,
      "hidden": 5919,
      "Credentials": 5920,
      "control": 5921,
      "ogram": 5922,
      "cb": 5923,
      "Ġkernel": 5924,
      "Ġbinding": 5925,
      "ducer": 5926,
      "ĠNewErr": 5927,
      "bool": 5928,
      "SSAGE": 5929,
      "ĠRule": 5930,
      "Ġroll": 5931,
      "Req": 5932,
      "semb": 5933,
      "Ġderi": 5934,
      "509": 5935,
      "Payment": 5936,
      "iss": 5937,
      "enant": 5938,
      "Upper": 5939,
      "ĠCustom": 5940,
      "Ġden": 5941,
      "Created": 5942,
      "Ġiterable": 5943,
      "Stop": 5944,
      "Ġbasic": 5945,
      "agination": 5946,
      "ĠTarget": 5947,
      "Ġkeyword": 5948,
      "================================": 5949,
      "Ġradius": 5950,
      "Ġetc": 5951,
      "changes": 5952,
      "Ġ{}'": 5953,
      "Versions": 5954,
      "ferences": 5955,
      "-%": 5956,
      "Ġnormal": 5957,
      "Edge": 5958,
      "GB": 5959,
      "Cert": 5960,
      "Ġoperations": 5961,
      "ĠnewInstance": 5962,
      "Ġduring": 5963,
      "ĠĠĠĠĠĠĠĠĠĠĠĠĠĠĠĠĠĠĠĠĠĠĠĠĠĠĠ": 5964,
      "********************************": 5965,
      "Cmd": 5966,
      "weight": 5967,
      "codes": 5968,
      "Ġvals": 5969,
      "ĠTODO": 5970,
      "structure": 5971,
      "Ġsaved": 5972,
      "Arch": 5973,
      "LOB": 5974,
      "åŃ": 5975,
      "Place": 5976,
      "[^": 5977,
      "Ġssl": 5978,
      "(...)\"": 5979,
      "strip": 5980,
      "MIT": 5981,
      "Ġbig": 5982,
      "ssl": 5983,
      "MO": 5984,
      "Disk": 5985,
      "clusive": 5986,
      "ĠFunc": 5987,
      "Depth": 5988,
      "export": 5989,
      "Ġer": 5990,
      "ĠProtocolMarshaller": 5991,
      "Equal": 5992,
      "ĠNewErrParam": 5993,
      "ARY": 5994,
      "curl": 5995,
      "ather": 5996,
      "Ġmt": 5997,
      "LIC": 5998,
      "ĠReflection": 5999,
      "35": 6000,
      "divid": 6001,
      "Ġ---------------------------------": 6002,
      "ĠWait": 6003,
      "Ġ\"#": 6004,
      "Ġenum": 6005,
      "Static": 6006,
      "mg": 6007,
      "Aggreg": 6008,
      "Topic": 6009,
      "Activity": 6010,
      "Rec": 6011,
      "Cookie": 6012,
      "swer": 6013,
      "Ġsv": 6014,
      "RED": 6015,
      "Save": 6016,
      "payment": 6017,
      "Actions": 6018,
      "Executor": 6019,
      "tty": 6020,
      "Variables": 6021,
      "NUM": 6022,
      "cols": 6023,
      "ĠGiven": 6024,
      "ggest": 6025,
      "ĠExp": 6026,
      "selected": 6027,
      "ĠFrom": 6028,
      "wt": 6029,
      "ĠOrder": 6030,
      "Dat": 6031,
      "Ġdependencies": 6032,
      "cut": 6033,
      "ĠSecurity": 6034,
      "Pipe": 6035,
      "bre": 6036,
      "cas": 6037,
      "Ġshutdown": 6038,
      "Ġgithub": 6039,
      "Ġ\"'\"": 6040,
      "Ġtransition": 6041,
      "Persist": 6042,
      "ĠWhen": 6043,
      "Ġinside": 6044,
      "ival": 6045,
      "Ġsources": 6046,
      "ĠAnnotation": 6047,
      "Wait": 6048,
      "Ġbottom": 6049,
      "ĠfindBy": 6050,
      "Ġabsolute": 6051,
      "Ġlibrary": 6052,
      "ĠUtils": 6053,
      "orizon": 6054,
      "ãĢ": 6055,
      "Ġarea": 6056,
      "Ġcontexts": 6057,
      "ĠProperties": 6058,
      "BY": 6059,
      "Ġvariant": 6060,
      "Ġprocessing": 6061,
      "ones": 6062,
      "agent": 6063,
      "oreign": 6064,
      "updated": 6065,
      "Ġexpect": 6066,
      "itive": 6067,
      "OLLOW": 6068,
      "hex": 6069,
      "period": 6070,
      "Balancer": 6071,
      "Ġ')'": 6072,
      "DELETE": 6073,
      "Ġcr": 6074,
      "xff": 6075,
      "OKEN": 6076,
      "oll": 6077,
      "Ġmarker": 6078,
      "DataType": 6079,
      "push": 6080,
      "ilar": 6081,
      "ropri": 6082,
      "raft": 6083,
      "Ġpt": 6084,
      "topt": 6085,
      "pages": 6086,
      "Ġprovide": 6087,
      "Visible": 6088,
      "Ġmanifest": 6089,
      "Ġpairs": 6090,
      "åħ": 6091,
      "undefined": 6092,
      "Machine": 6093,
      "ropriate": 6094,
      "TL": 6095,
      "Ġcandidate": 6096,
      "Sw": 6097,
      "redirect": 6098,
      "vance": 6099,
      "Chan": 6100,
      "ĠINT": 6101,
      "pot": 6102,
      "changed": 6103,
      "ĠPrintf": 6104,
      "ĠBad": 6105,
      "Codes": 6106,
      "09": 6107,
      "Warning": 6108,
      "allet": 6109,
      "fileName": 6110,
      "Ġevaluate": 6111,
      "ĠAR": 6112,
      "ĠMedia": 6113,
      "Ġroutes": 6114,
      "Ġwarnings": 6115,
      "ĠcreateElement": 6116,
      "Ter": 6117,
      "âĢ": 6118,
      "88": 6119,
      "Ð»": 6120,
      "PREFIX": 6121,
      "Ġplugins": 6122,
      "signature": 6123,
      "tracking": 6124,
      "Ġwriteln": 6125,
      "Unique": 6126,
      "anded": 6127,
      "ĠgetMethod": 6128,
      "Separator": 6129,
      "ĠentrySet": 6130,
      "false": 6131,
      "Ġloads": 6132,
      "Override": 6133,
      "regist": 6134,
      "Ġborder": 6135,
      "Ġsure": 6136,
      "Ġalign": 6137,
      "tifications": 6138,
      "rong": 6139,
      "Head": 6140,
      "ĠAppend": 6141,
      "Ġinvok": 6142,
      "Ġcance": 6143,
      "acade": 6144,
      "21": 6145,
      "Ġappropriate": 6146,
      "Rect": 6147,
      "Packet": 6148,
      "inv": 6149,
      "ĠAny": 6150,
      "Bad": 6151,
      "MODE": 6152,
      "Virtual": 6153,
      ").": 6154,
      "ĠLE": 6155,
      "suffix": 6156,
      "Ġbackground": 6157,
      "ĠgetEntity": 6158,
      "dient": 6159,
      "commit": 6160,
      "cd": 6161,
      "tain": 6162,
      "ĠModule": 6163,
      "Ġmany": 6164,
      "onomy": 6165,
      "LINE": 6166,
      "ĠNow": 6167,
      "ACE": 6168,
      "Dialog": 6169,
      "ĠgetService": 6170,
      "Matcher": 6171,
      "ĠAt": 6172,
      "Serializer": 6173,
      "insert": 6174,
      "Axis": 6175,
      "Ġsender": 6176,
      "inherit": 6177,
      "MIN": 6178,
      "ĠRepository": 6179,
      "Face": 6180,
      "tice": 6181,
      "ĠgetProc": 6182,
      "Contents": 6183,
      "Send": 6184,
      "Ġgre": 6185,
      "ĠgetIn": 6186,
      "setting": 6187,
      "ĠfilePath": 6188,
      "Ġtimer": 6189,
      "ĠfieldName": 6190,
      "cluding": 6191,
      "}\\": 6192,
      "iform": 6193,
      "translation": 6194,
      "ĠNull": 6195,
      "../": 6196,
      "Encode": 6197,
      "Structure": 6198,
      "Roles": 6199,
      "Backup": 6200,
      "Ġtail": 6201,
      "Annotations": 6202,
      "Cor": 6203,
      "peed": 6204,
      "Ġredis": 6205,
      "ĠcaseIfc": 6206,
      "umbn": 6207,
      "jo": 6208,
      "Ġdocker": 6209,
      "Ġ'#'": 6210,
      "ĠRole": 6211,
      "StackTrace": 6212,
      "Ġcoords": 6213,
      "vile": 6214,
      "}:": 6215,
      "Ġmapped": 6216,
      "Ġmerged": 6217,
      "ĠNullable": 6218,
      "Ġ1024": 6219,
      "Amount": 6220,
      "generator": 6221,
      "fail": 6222,
      "expr": 6223,
      "ĠRetrieves": 6224,
      "sess": 6225,
      "ĠGenerates": 6226,
      "Grid": 6227,
      "ĠIterable": 6228,
      "models": 6229,
      "Ġcoordinates": 6230,
      "ARNING": 6231,
      "star": 6232,
      "ĠRemote": 6233,
      "Off": 6234,
      "Ġmail": 6235,
      "slice": 6236,
      "ifies": 6237,
      "idE": 6238,
      "ĠDat": 6239,
      "ĠAttributeError": 6240,
      "metric": 6241,
      "Ġes": 6242,
      "BER": 6243,
      "CU": 6244,
      "ĠgetResponse": 6245,
      "ATED": 6246,
      "ĠCommerce": 6247,
      "Ġgets": 6248,
      "Ġpipeline": 6249,
      "ĠSize": 6250,
      "iki": 6251,
      "Ġstates": 6252,
      "country": 6253,
      "ĠPort": 6254,
      "adcast": 6255,
      "Rad": 6256,
      "dom": 6257,
      "xFF": 6258,
      "ĠOS": 6259,
      "Ġmapper": 6260,
      "Ġ*=": 6261,
      "Ġwrapped": 6262,
      "Ġwhat": 6263,
      "Ġcms": 6264,
      "rain": 6265,
      "Ġtrain": 6266,
      "ĠPlugin": 6267,
      "Ġenc": 6268,
      "Ob": 6269,
      "csv": 6270,
      "Series": 6271,
      "istic": 6272,
      "lux": 6273,
      "Ġtargets": 6274,
      "Ġstage": 6275,
      "Ctx": 6276,
      "Ġevt": 6277,
      "Ġready": 6278,
      "annotation": 6279,
      "Permissions": 6280,
      "ĠInterface": 6281,
      "Transform": 6282,
      "ĠSQLException": 6283,
      "Ġdescribe": 6284,
      "Ġchannels": 6285,
      "Ġlim": 6286,
      "ĠgetContext": 6287,
      "fficient": 6288,
      "Ġreturning": 6289,
      "Ġfloor": 6290,
      "Ġshell": 6291,
      "Ġtake": 6292,
      "Ġcriteria": 6293,
      "escape": 6294,
      "Seconds": 6295,
      "private": 6296,
      "owner": 6297,
      "aler": 6298,
      "IFI": 6299,
      "llation": 6300,
      "striction": 6301,
      "ĠReference": 6302,
      "lapsed": 6303,
      "Factor": 6304,
      "Ġversions": 6305,
      "Authentication": 6306,
      "Ġrename": 6307,
      "ĠFOLLOW": 6308,
      "ĠTx": 6309,
      "Ġyaml": 6310,
      "branch": 6311,
      "ĠArgs": 6312,
      "Ġconnected": 6313,
      "Ġunpack": 6314,
      "Support": 6315,
      "ĠCount": 6316,
      "Ġissue": 6317,
      "Ġcalendar": 6318,
      "oted": 6319,
      "trine": 6320,
      "Ġstarted": 6321,
      "binding": 6322,
      "ĠgetObject": 6323,
      "Ġll": 6324,
      "Selected": 6325,
      "Ġconstant": 6326,
      "PERTY": 6327,
      "Simple": 6328,
      "amer": 6329,
      "ĠDEBUG": 6330,
      "ierarchy": 6331,
      "OIN": 6332,
      "86": 6333,
      "Ġ&#": 6334,
      "amount": 6335,
      "jected": 6336,
      "Ġdeg": 6337,
      "ĠPod": 6338,
      "AA": 6339,
      "è¿": 6340,
      "ĠCharacter": 6341,
      ";'": 6342,
      "05": 6343,
      "ĠParses": 6344,
      "Ġfixed": 6345,
      "ulation": 6346,
      "feed": 6347,
      "Ġuc": 6348,
      "reflection": 6349,
      "VENT": 6350,
      "Ġsepar": 6351,
      "Ġnecessary": 6352,
      "Ġentities": 6353,
      "Ġparsing": 6354,
      "usters": 6355,
      "Ġtz": 6356,
      "icker": 6357,
      "Ġpython": 6358,
      "SOURCE": 6359,
      "ĠVER": 6360,
      "www": 6361,
      "aws": 6362,
      "components": 6363,
      "lying": 6364,
      "Insert": 6365,
      "scheme": 6366,
      "ĠgetX": 6367,
      "MetaData": 6368,
      "Bits": 6369,
      "sired": 6370,
      "Ġchars": 6371,
      "Java": 6372,
      "ĠSH": 6373,
      "Ġown": 6374,
      "tick": 6375,
      "ĠnewValue": 6376,
      "Ġpc": 6377,
      "Ġ..": 6378,
      "Ġprocessed": 6379,
      "ailability": 6380,
      "ĠWri": 6381,
      "Ġcanvas": 6382,
      "ota": 6383,
      "TED": 6384,
      "quare": 6385,
      "ĠON": 6386,
      "na": 6387,
      "illi": 6388,
      "otes": 6389,
      "Ġattempt": 6390,
      "ĠĠĠĠĠĠĠĠĠĠĠĠĠĠĠĠĠĠĠĠĠĠĠĠĠĠĠĠĠĠĠĠ": 6391,
      "ĠLen": 6392,
      "Declaration": 6393,
      "ĠgetProcAddr": 6394,
      "TRI": 6395,
      "Ġpur": 6396,
      "Ġignored": 6397,
      "Blocks": 6398,
      "Ġsegments": 6399,
      "ĠDoc": 6400,
      "quals": 6401,
      "xx": 6402,
      "84": 6403,
      "You": 6404,
      "dow": 6405,
      "Ġcolors": 6406,
      "ĠLocale": 6407,
      "ĠLinked": 6408,
      "Ġdon": 6409,
      "ĠClo": 6410,
      "adapter": 6411,
      "cls": 6412,
      "Ġwould": 6413,
      "Ġmkdir": 6414,
      "Ġserialized": 6415,
      "Ġcn": 6416,
      "BR": 6417,
      "Ġcf": 6418,
      "Ġour": 6419,
      "ĠDescription": 6420,
      "gp": 6421,
      "Ġdelimiter": 6422,
      "FER": 6423,
      "SU": 6424,
      "ĠRaw": 6425,
      "Subscription": 6426,
      "Ġfoo": 6427,
      "LAG": 6428,
      "Ġwalk": 6429,
      "ĠGoogle": 6430,
      "ĠCore": 6431,
      "yy": 6432,
      "Partition": 6433,
      "Ġmount": 6434,
      "Literal": 6435,
      "astore": 6436,
      "TERN": 6437,
      "cest": 6438,
      "Ġmodify": 6439,
      "Ġfragment": 6440,
      "Ġreferences": 6441,
      "icense": 6442,
      "chars": 6443,
      "AIL": 6444,
      "Ġless": 6445,
      "Ġ'?'": 6446,
      "PP": 6447,
      "Deployment": 6448,
      "rb": 6449,
      "Ġroles": 6450,
      "Ġrpc": 6451,
      "Ġtheme": 6452,
      "veloper": 6453,
      "indices": 6454,
      "ĠgetCode": 6455,
      "Ġhere": 6456,
      "Ġdns": 6457,
      "Subject": 6458,
      "SPACE": 6459,
      "34": 6460,
      "AF": 6461,
      "pendent": 6462,
      "][": 6463,
      "Ġkv": 6464,
      "aker": 6465,
      "Ġconsume": 6466,
      "ĠPublic": 6467,
      "Ġordered": 6468,
      "Transport": 6469,
      "ĠMeta": 6470,
      "UNCTION": 6471,
      "Constructor": 6472,
      "Ġprogram": 6473,
      "Ġallows": 6474,
      "Ġcatalog": 6475,
      "prev": 6476,
      "uff": 6477,
      "æĪ": 6478,
      "Ġdialog": 6479,
      "ĠStringBuffer": 6480,
      "Ġactivity": 6481,
      "skip": 6482,
      "ĠNonnull": 6483,
      "Publish": 6484,
      "ĠCertificate": 6485,
      "Ġadap": 6486,
      "Split": 6487,
      "(?:": 6488,
      "okies": 6489,
      "Cursor": 6490,
      "ĠSave": 6491,
      "Complete": 6492,
      "git": 6493,
      "Ġbuff": 6494,
      "Ġcompiler": 6495,
      "Ġcsv": 6496,
      "Ġexecutor": 6497,
      "Ġneighb": 6498,
      "Ġgrammar": 6499,
      "href": 6500,
      "Ġec": 6501,
      "periment": 6502,
      "Ġunknown": 6503,
      "Ġincrement": 6504,
      "=\"'": 6505,
      "Worker": 6506,
      "Expected": 6507,
      "DC": 6508,
      "bundle": 6509,
      "Ġthreshold": 6510,
      "Ġ'/^": 6511,
      "Reg": 6512,
      "iness": 6513,
      "ĠMark": 6514,
      "setopt": 6515,
      "Ġseen": 6516,
      "ĠgetText": 6517,
      "gu": 6518,
      "aring": 6519,
      "Private": 6520,
      "...\"": 6521,
      "Do": 6522,
      "Ġcipher": 6523,
      "LOCK": 6524,
      "Author": 6525,
      "Ġpb": 6526,
      "Ġagainst": 6527,
      "Ġcy": 6528,
      "ĠBit": 6529,
      "Asset": 6530,
      "orizontal": 6531,
      "oauth": 6532,
      "Ġlifecycle": 6533,
      "ĠRO": 6534,
      "ĠMe": 6535,
      "resolver": 6536,
      "ims": 6537,
      "Ġstrict": 6538,
      "Ġthese": 6539,
      "ĠsetParameter": 6540,
      "tivation": 6541,
      "Ġctrl": 6542,
      "ĠgetColumn": 6543,
      "commands": 6544,
      "ĠGit": 6545,
      "ĠOther": 6546,
      "Ġcompleted": 6547,
      "Ġfilled": 6548,
      "Ġyang": 6549,
      "ĠsetName": 6550,
      "OwnProperty": 6551,
      "Ġdx": 6552,
      "single": 6553,
      "Requests": 6554,
      "ashboard": 6555,
      "Ġtranslation": 6556,
      "Ġnan": 6557,
      "posed": 6558,
      "Ġlogical": 6559,
      "andidates": 6560,
      "ĠgetConnection": 6561,
      "Ġdumps": 6562,
      "tableName": 6563,
      "pology": 6564,
      "Timer": 6565,
      "amel": 6566,
      "Ġox": 6567,
      "validation": 6568,
      "Ġdirectly": 6569,
      "Ġwere": 6570,
      "VICE": 6571,
      "views": 6572,
      "Ġcar": 6573,
      "ĠCH": 6574,
      "ĠDomain": 6575,
      "ĠRegistry": 6576,
      "tics": 6577,
      "uess": 6578,
      "Ġrank": 6579,
      "Ġindexes": 6580,
      "Ġsupports": 6581,
      "optional": 6582,
      "JS": 6583,
      "Attachment": 6584,
      "Ġhome": 6585,
      "ĠgetH": 6586,
      "Cl": 6587,
      "DT": 6588,
      "200": 6589,
      "gers": 6590,
      "uc": 6591,
      "internal": 6592,
      "Dispatcher": 6593,
      "Ġcells": 6594,
      "Records": 6595,
      "Ġidentifi": 6596,
      "mat": 6597,
      "Ġesc": 6598,
      "75": 6599,
      "Ġvec": 6600,
      "Star": 6601,
      "static": 6602,
      "Translation": 6603,
      "iling": 6604,
      "Ġ500": 6605,
      "Ġsteps": 6606,
      "ĠCan": 6607,
      "lyph": 6608,
      "tailed": 6609,
      "Ġbeta": 6610,
      "Pass": 6611,
      "LY": 6612,
      "ĠcurrentTime": 6613,
      "security": 6614,
      "Delay": 6615,
      "plugins": 6616,
      "Export": 6617,
      "Proc": 6618,
      "Replace": 6619,
      "Present": 6620,
      "drop": 6621,
      "plain": 6622,
      "ĠNOTE": 6623,
      "byte": 6624,
      "BagConstraints": 6625,
      "Ġsingleton": 6626,
      "Peer": 6627,
      "factor": 6628,
      "RAY": 6629,
      "Click": 6630,
      "ento": 6631,
      "ĠPoin": 6632,
      "Ġquestion": 6633,
      "Ġinstalled": 6634,
      "Ġannotations": 6635,
      "Ġsyn": 6636,
      "30": 6637,
      "Ġmp": 6638,
      "aped": 6639,
      "LED": 6640,
      "66": 6641,
      "?\"": 6642,
      "Algorithm": 6643,
      "sig": 6644,
      "Renderer": 6645,
      "Card": 6646,
      "Ġstyles": 6647,
      "ĠPDO": 6648,
      "İ·": 6649,
      "ilation": 6650,
      "ç»": 6651,
      "Ġnormalized": 6652,
      "ĠgetR": 6653,
      "Cat": 6654,
      "TableMap": 6655,
      "ango": 6656,
      "Ġconstraint": 6657,
      "Ġconditions": 6658,
      "Tasks": 6659,
      "selector": 6660,
      "ĠRow": 6661,
      "avigation": 6662,
      "Ġrevision": 6663,
      "ĠHashSet": 6664,
      "Ġsubprocess": 6665,
      "inger": 6666,
      "sd": 6667,
      "ions": 6668,
      "ĠVolume": 6669,
      "Ġ50": 6670,
      "ĠEN": 6671,
      "Ġslug": 6672,
      "Ġyet": 6673,
      "Ġmc": 6674,
      "embed": 6675,
      "Ġtoo": 6676,
      "={": 6677,
      "ism": 6678,
      "Ġ\"#{": 6679,
      "Conversion": 6680,
      "Ġhparams": 6681,
      "generate": 6682,
      "atal": 6683,
      "ALS": 6684,
      "ĠCre": 6685,
      "Visitor": 6686,
      "Sample": 6687,
      "Ġbacktracking": 6688,
      "ADD": 6689,
      "Wri": 6690,
      "Ġcourse": 6691,
      "sertions": 6692,
      "wp": 6693,
      "environment": 6694,
      "ĠRequests": 6695,
      "Sets": 6696,
      "Ġshard": 6697,
      "look": 6698,
      "Primary": 6699,
      "ks": 6700,
      "SSL": 6701,
      "ĠgetL": 6702,
      "Ġplay": 6703,
      "Ġauthorization": 6704,
      "-'": 6705,
      "ĠCA": 6706,
      "Optional": 6707,
      "ĠgetNext": 6708,
      "ascript": 6709,
      "ĠParameters": 6710,
      "Ġjavax": 6711,
      "aterial": 6712,
      "lastic": 6713,
      "\\/": 6714,
      "Tables": 6715,
      "ĠParser": 6716,
      "nable": 6717,
      "ACT": 6718,
      "Ġrm": 6719,
      "final": 6720,
      "*\"": 6721,
      "Ġanalysis": 6722,
      "ĠErrInvalid": 6723,
      "Ġtemplates": 6724,
      "Fetch": 6725,
      "Ġarrays": 6726,
      "roke": 6727,
      "aves": 6728,
      "Collector": 6729,
      "alyzer": 6730,
      "Ġdisabled": 6731,
      "Ġcred": 6732,
      "ducts": 6733,
      "feature": 6734,
      "Ġdeployment": 6735,
      "ike": 6736,
      "ĠSelect": 6737,
      "GR": 6738,
      "DEX": 6739,
      "previous": 6740,
      "Ġendswith": 6741,
      "segment": 6742,
      "SESSION": 6743,
      "Ġbad": 6744,
      "RES": 6745,
      "ĠINSTANCE": 6746,
      "ĠfeatureID": 6747,
      "Ġtermin": 6748,
      "cla": 6749,
      "},": 6750,
      "oose": 6751,
      "Ġ\"-\"": 6752,
      "ĠEndpoint": 6753,
      "Ġtls": 6754,
      "Marker": 6755,
      "External": 6756,
      "Ġlogs": 6757,
      "FIELD": 6758,
      "74": 6759,
      "Constant": 6760,
      "ĠMET": 6761,
      "Ġdimensions": 6762,
      "Ġcoe": 6763,
      "Ġ\"{$": 6764,
      "ini": 6765,
      "Ġlisten": 6766,
      "Ġworkflow": 6767,
      "ĠtableName": 6768,
      "ĠgetLocal": 6769,
      "unknown": 6770,
      "ROUP": 6771,
      "fd": 6772,
      "members": 6773,
      "summary": 6774,
      "Members": 6775,
      "PORT": 6776,
      "igrations": 6777,
      "Ġseg": 6778,
      "vari": 6779,
      "ASK": 6780,
      "tp": 6781,
      "SCRI": 6782,
      "Ġpackages": 6783,
      "afe": 6784,
      "lin": 6785,
      "moved": 6786,
      "Ġcir": 6787,
      "æį": 6788,
      "Ġexact": 6789,
      "services": 6790,
      "Ġdd": 6791,
      "dap": 6792,
      "ĠTw": 6793,
      "price": 6794,
      "ĠUI": 6795,
      "ĠVoid": 6796,
      "umbnail": 6797,
      "Ġworking": 6798,
      "features": 6799,
      "Ġsat": 6800,
      "Span": 6801,
      "IZ": 6802,
      "ocab": 6803,
      "ĠMust": 6804,
      "Ġseek": 6805,
      "ĠMetadata": 6806,
      "Ġerrs": 6807,
      "Ġconnections": 6808,
      "PTY": 6809,
      "Ġidenti": 6810,
      "ĠComple": 6811,
      "mean": 6812,
      "shop": 6813,
      "Ġmicro": 6814,
      "Defaults": 6815,
      "livery": 6816,
      "ĠMerge": 6817,
      "catalog": 6818,
      "Ġrelationship": 6819,
      "iol": 6820,
      "ajor": 6821,
      "})": 6822,
      "åĬ": 6823,
      "Ġvideo": 6824,
      "AIN": 6825,
      "entries": 6826,
      "+'": 6827,
      "Ġdid": 6828,
      "lv": 6829,
      "Ġconsi": 6830,
      "39": 6831,
      "sid": 6832,
      "Scroll": 6833,
      "WE": 6834,
      "Ġdesired": 6835,
      "ife": 6836,
      "ĠPI": 6837,
      "Ġincludes": 6838,
      "dividual": 6839,
      "Ġmultip": 6840,
      "KE": 6841,
      "Ġctypes": 6842,
      "Ġautomatic": 6843,
      "Ġconverted": 6844,
      "Ġpopulate": 6845,
      "protocol": 6846,
      "Running": 6847,
      "ĠGu": 6848,
      "make": 6849,
      "Ġshop": 6850,
      "dian": 6851,
      "Seq": 6852,
      "ĠgetSub": 6853,
      "permissions": 6854,
      "Ġconv": 6855,
      "trim": 6856,
      "Ġore": 6857,
      "Ġdynamic": 6858,
      "ĠImp": 6859,
      "Ġ25": 6860,
      "Ġadjust": 6861,
      "ĠPattern": 6862,
      "ĠVariable": 6863,
      "POS": 6864,
      "Ġtxt": 6865,
      "Border": 6866,
      "jax": 6867,
      "render": 6868,
      "aN": 6869,
      "Ġbus": 6870,
      "Exit": 6871,
      "Ġcountry": 6872,
      "tables": 6873,
      "+)": 6874,
      "Ġops": 6875,
      "pred": 6876,
      "MAX": 6877,
      "ĠCS": 6878,
      "tit": 6879,
      "eds": 6880,
      "Loop": 6881,
      "Show": 6882,
      "Mail": 6883,
      "ĠTest": 6884,
      "ĠUrl": 6885,
      "Tax": 6886,
      "Ġwx": 6887,
      "READ": 6888,
      "ĠĠĠĠĠĠĠĠĠĠĠĠ": 6889,
      "fa": 6890,
      "å¤": 6891,
      "templates": 6892,
      "ĠOne": 6893,
      "sales": 6894,
      "Ġrb": 6895,
      "Fault": 6896,
      "Watch": 6897,
      "fc": 6898,
      "Ġvisible": 6899,
      "Ġserializer": 6900,
      "pound": 6901,
      "Ġprecision": 6902,
      "master": 6903,
      "ĠDeletes": 6904,
      "ĠhasOwnProperty": 6905,
      "Ġcurrency": 6906,
      "Ġcard": 6907,
      "Ġnative": 6908,
      "Common": 6909,
      "APP": 6910,
      "edge": 6911,
      "Ġaxes": 6912,
      "Ġstringify": 6913,
      "TableName": 6914,
      "ivalent": 6915,
      "Ġrenderer": 6916,
      "Ġreshape": 6917,
      "ITH": 6918,
      "ĠgroupId": 6919,
      "ĠController": 6920,
      "ka": 6921,
      "Dest": 6922,
      "Ġpick": 6923,
      "Distance": 6924,
      "wait": 6925,
      "ĠYANG": 6926,
      "Ġsyntax": 6927,
      "Handlers": 6928,
      "ĠWindow": 6929,
      "exclude": 6930,
      "Ġpopulated": 6931,
      "router": 6932,
      "ĠMIN": 6933,
      "uman": 6934,
      "ables": 6935,
      "contentType": 6936,
      "lica": 6937,
      "ĠValues": 6938,
      "tf": 6939,
      "Ġpp": 6940,
      "GE": 6941,
      "Redirect": 6942,
      "Ġnumbers": 6943,
      "rimitive": 6944,
      "CONFIG": 6945,
      "è¡": 6946,
      "ĠAccount": 6947,
      "Branch": 6948,
      "proto": 6949,
      "Addresses": 6950,
      "ITION": 6951,
      "AUTH": 6952,
      "Ġdetailed": 6953,
      "LIST": 6954,
      "Lookup": 6955,
      "rm": 6956,
      "Ġlayers": 6957,
      "....": 6958,
      "Trigger": 6959,
      "Ġsentence": 6960,
      "MI": 6961,
      "ivery": 6962,
      "Bus": 6963,
      "correct": 6964,
      "rpc": 6965,
      "reader": 6966,
      "Ġhidden": 6967,
      "Ġreading": 6968,
      "Association": 6969,
      "-\\": 6970,
      "existing": 6971,
      "Ġouter": 6972,
      "ĠCompute": 6973,
      "Ġplain": 6974,
      "ĠSTATUS": 6975,
      "ĠgetLogger": 6976,
      "duration": 6977,
      "Ms": 6978,
      "FieldName": 6979,
      "Ġpercent": 6980,
      "Ġ18": 6981,
      "servation": 6982,
      "strict": 6983,
      "Revision": 6984,
      "ĠgetSession": 6985,
      "ĠQueue": 6986,
      "ANT": 6987,
      "ĠPackage": 6988,
      "Users": 6989,
      "Ġgol": 6990,
      "Ġdiag": 6991,
      ".%": 6992,
      "blocks": 6993,
      "COUNT": 6994,
      "Pl": 6995,
      "Ġguide": 6996,
      "CC": 6997,
      "Lo": 6998,
      "PHP": 6999,
      "notate": 7000,
      "Ġ\"</": 7001,
      "sect": 7002,
      "ĠFactory": 7003,
      "Ġpot": 7004,
      "Ġteam": 7005,
      "WR": 7006,
      "cursively": 7007,
      "Ġconverter": 7008,
      "Ġaddresses": 7009,
      "ĠUint": 7010,
      "Ġcomments": 7011,
      "Ġformats": 7012,
      "Ġdetect": 7013,
      "memory": 7014,
      "samples": 7015,
      "çĶ¨": 7016,
      "LENG": 7017,
      "Ġspecial": 7018,
      "Ġmonitor": 7019,
      "Ġ'|": 7020,
      "Definitions": 7021,
      "ĠPointer": 7022,
      "Links": 7023,
      "inst": 7024,
      "fplib": 7025,
      "ĠisS": 7026,
      "Ġresolver": 7027,
      "Ġptr": 7028,
      "ĠPersist": 7029,
      "ium": 7030,
      "racket": 7031,
      "piry": 7032,
      "ctive": 7033,
      "ĠUTF": 7034,
      "Ġdetermin": 7035,
      "ĠLay": 7036,
      "ĠIM": 7037,
      "ĠAfplib": 7038,
      "ĠPRE": 7039,
      "ĠgetI": 7040,
      "Unlock": 7041,
      "ĠHttpServlet": 7042,
      "ĠAfplibPackage": 7043,
      "Clause": 7044,
      "urnal": 7045,
      "Ġreads": 7046,
      "ĉĉĉĉĉ": 7047,
      "Ġdeepcopy": 7048,
      "units": 7049,
      "Ġworkspace": 7050,
      "Ġplaceholder": 7051,
      "Ġ\")": 7052,
      "filePath": 7053,
      "ĠNotFound": 7054,
      "cloud": 7055,
      "Ġchunks": 7056,
      "Zero": 7057,
      "tector": 7058,
      "ĠgetElement": 7059,
      "Ġpanel": 7060,
      "Ġstri": 7061,
      "cripts": 7062,
      "ĠgetMax": 7063,
      "Ġunsafe": 7064,
      "ĠImmutable": 7065,
      "ĠCalled": 7066,
      "Encoder": 7067,
      "Ġssh": 7068,
      "Ġ\")\"": 7069,
      "png": 7070,
      "None": 7071,
      "ĠInit": 7072,
      "olid": 7073,
      "Ġwritten": 7074,
      "bits": 7075,
      "reset": 7076,
      "leet": 7077,
      "Real": 7078,
      "Contact": 7079,
      "ĠUnsupported": 7080,
      "ĠDataFrame": 7081,
      "FORMAT": 7082,
      "Editor": 7083,
      "scriptions": 7084,
      "Ġanswer": 7085,
      "ysical": 7086,
      "ĠMetric": 7087,
      "pix": 7088,
      "ĠRuntimeError": 7089,
      "LENGTH": 7090,
      "volume": 7091,
      "asket": 7092,
      "Ġtar": 7093,
      "duction": 7094,
      "ruptedException": 7095,
      "pan": 7096,
      "ĠProvider": 7097,
      "pipe": 7098,
      "Components": 7099,
      "vered": 7100,
      "]{": 7101,
      "sence": 7102,
      "ĠExtract": 7103,
      "Criteria": 7104,
      "Ġ\";": 7105,
      "Css": 7106,
      "acl": 7107,
      "note": 7108,
      "Ġmesh": 7109,
      "__'": 7110,
      "crete": 7111,
      "Hex": 7112,
      "progress": 7113,
      "Ġinspect": 7114,
      "download": 7115,
      "Ġrev": 7116,
      "convert": 7117,
      "ĠMatrix": 7118,
      "İ·åıĸ": 7119,
      "True": 7120,
      "ice": 7121,
      "Render": 7122,
      "Updated": 7123,
      "Second": 7124,
      "Ġremoves": 7125,
      "home": 7126,
      "uer": 7127,
      "Ġrecursive": 7128,
      "TES": 7129,
      "ĠEd": 7130,
      "processor": 7131,
      "PL": 7132,
      "sume": 7133,
      "Ġchoice": 7134,
      "acing": 7135,
      "Excel": 7136,
      "Ġthose": 7137,
      "amma": 7138,
      "ulate": 7139,
      "ĠSTR": 7140,
      "indent": 7141,
      "Ġbc": 7142,
      "OPTION": 7143,
      "ceeded": 7144,
      "Ġmeasure": 7145,
      "CCESS": 7146,
      "ru": 7147,
      "enable": 7148,
      "ĠCR": 7149,
      "wrapper": 7150,
      "ildcard": 7151,
      "Ġincluding": 7152,
      "Ġjobs": 7153,
      "anitize": 7154,
      "ĠaddChild": 7155,
      "ordinate": 7156,
      "Ġgateway": 7157,
      "ĠEOF": 7158,
      "ough": 7159,
      "ĠWalk": 7160,
      "Country": 7161,
      "Ġsock": 7162,
      "ĠSort": 7163,
      "ĠAssert": 7164,
      "(.*": 7165,
      "enar": 7166,
      "Ġones": 7167,
      "Ġsrv": 7168,
      "charset": 7169,
      "FIN": 7170,
      "ĠCurrent": 7171,
      "Ġlists": 7172,
      "Ġcalc": 7173,
      "CHAR": 7174,
      "Net": 7175,
      "routes": 7176,
      "ĠFF": 7177,
      "Slot": 7178,
      "ĠGrid": 7179,
      "customer": 7180,
      "Ġperson": 7181,
      "Ġcompact": 7182,
      "optParams": 7183,
      "car": 7184,
      "ĠVirtual": 7185,
      "override": 7186,
      "bad": 7187,
      "Ġmon": 7188,
      "Ġcancellation": 7189,
      "ĠBucket": 7190,
      "Measure": 7191,
      "ĠLocation": 7192,
      "images": 7193,
      "boolean": 7194,
      "Ġgeo": 7195,
      "Matches": 7196,
      "Ġproper": 7197,
      "Ġincluded": 7198,
      "Closed": 7199,
      "series": 7200,
      "9999": 7201,
      "Ġoutputs": 7202,
      "Ġinitialized": 7203,
      "ĠPolicy": 7204,
      "ores": 7205,
      "inished": 7206,
      "Ġjar": 7207,
      "ĠEM": 7208,
      "atom": 7209,
      "Words": 7210,
      "Merge": 7211,
      "dirs": 7212,
      "categories": 7213,
      "ĠByteBuffer": 7214,
      "ĠConnect": 7215,
      "ĠnewRequest": 7216,
      "Workspace": 7217,
      "fit": 7218,
      "Score": 7219,
      "Accept": 7220,
      "yml": 7221,
      "idEsales": 7222,
      "Ġul": 7223,
      "Origin": 7224,
      "Ġhour": 7225,
      "foreign": 7226,
      "Ġcompletes": 7227,
      "Capacity": 7228,
      "ĠgetModel": 7229,
      "ĠTuple": 7230,
      "ĠRelation": 7231,
      "Unexpected": 7232,
      "Ġmiddleware": 7233,
      "ĠStack": 7234,
      "ĠCur": 7235,
      "andsha": 7236,
      "ĠBY": 7237,
      "release": 7238,
      "EventListener": 7239,
      "Ġgolang": 7240,
      "29": 7241,
      "Ġoauth": 7242,
      "pm": 7243,
      "orld": 7244,
      "Ġrotation": 7245,
      "Done": 7246,
      "ared": 7247,
      "IAL": 7248,
      "ĠTrim": 7249,
      "ĠOP": 7250,
      "hy": 7251,
      "Ġ'{}'": 7252,
      "SY": 7253,
      "sync": 7254,
      "Ġpayment": 7255,
      "Calendar": 7256,
      "sity": 7257,
      "ĠcontentType": 7258,
      "notification": 7259,
      "ĠserviceName": 7260,
      "agraph": 7261,
      "iterator": 7262,
      "Ġenter": 7263,
      "ixin": 7264,
      "Ġbs": 7265,
      "tpl": 7266,
      "ĠJAX": 7267,
      "ĠInitialize": 7268,
      "Draw": 7269,
      "Ġsolution": 7270,
      "states": 7271,
      "Generic": 7272,
      "Ġln": 7273,
      "engine": 7274,
      "////////////////////////////////": 7275,
      "itter": 7276,
      "arty": 7277,
      "Ġvs": 7278,
      "More": 7279,
      "Connector": 7280,
      "pn": 7281,
      "ĠAtom": 7282,
      "ĠgetFirst": 7283,
      "Fragment": 7284,
      "EC": 7285,
      "Ġphase": 7286,
      "Ġcodes": 7287,
      "Ġnone": 7288,
      "CFG": 7289,
      "ĠsetProperty": 7290,
      "Ġattachment": 7291,
      "kernel": 7292,
      "ĠpropertyName": 7293,
      "Ġwire": 7294,
      "Ġnegative": 7295,
      "Elem": 7296,
      "Gen": 7297,
      "cursor": 7298,
      "ĠJS": 7299,
      "Ġcleanup": 7300,
      "ĠShort": 7301,
      "tip": 7302,
      "Archive": 7303,
      "inu": 7304,
      "ĠOAuth": 7305,
      "ibling": 7306,
      "Ġmut": 7307,
      "Ġconstraints": 7308,
      "Ġsigma": 7309,
      "Ġsli": 7310,
      "Ġklass": 7311,
      "Ġdefinitions": 7312,
      "Main": 7313,
      "Inst": 7314,
      "Ð°Ð": 7315,
      "rece": 7316,
      "ĠInterruptedException": 7317,
      "cert": 7318,
      "Ġstrategy": 7319,
      "Extensions": 7320,
      "atable": 7321,
      "brevi": 7322,
      "Fixed": 7323,
      "transform": 7324,
      "Ġgreater": 7325,
      "lon": 7326,
      "ummy": 7327,
      "rus": 7328,
      "lict": 7329,
      "Backend": 7330,
      "ares": 7331,
      "chan": 7332,
      "ĠSTATE": 7333,
      "ĠStruct": 7334,
      "Endian": 7335,
      "constraint": 7336,
      "85": 7337,
      "ĠDi": 7338,
      "distance": 7339,
      "Ġhide": 7340,
      "Ġconstruct": 7341,
      "Repo": 7342,
      "Units": 7343,
      "ĠGeneric": 7344,
      "Ġorganization": 7345,
      "ĠCLASS": 7346,
      "Ġinline": 7347,
      "binary": 7348,
      "Ġ->": 7349,
      "ONG": 7350,
      "rott": 7351,
      "Ġmeans": 7352,
      "java": 7353,
      "VM": 7354,
      "Ġclip": 7355,
      "ĠgetBody": 7356,
      "ĠCmsResource": 7357,
      "EW": 7358,
      "Retry": 7359,
      "Currency": 7360,
      "Ġcwd": 7361,
      "Ġtheta": 7362,
      "åĽ": 7363,
      "aking": 7364,
      "Ġ400": 7365,
      "ĠReads": 7366,
      "ĠgetLast": 7367,
      "Deleted": 7368,
      "Ġreplacement": 7369,
      "Ġsheet": 7370,
      "ĠgetClient": 7371,
      "Functions": 7372,
      "ĠLast": 7373,
      "Cost": 7374,
      "Ġbb": 7375,
      "ĠRoot": 7376,
      "100": 7377,
      "ĠgetRoot": 7378,
      "ĠReset": 7379,
      "ĠnextPage": 7380,
      "Ġconstants": 7381,
      "Ġwell": 7382,
      "Ġsvc": 7383,
      "extensions": 7384,
      "cluster": 7385,
      "Ġconverts": 7386,
      "integer": 7387,
      "ĠSha": 7388,
      "ĠlastIndex": 7389,
      "ditional": 7390,
      "deleted": 7391,
      "Ġbot": 7392,
      "ĠRegist": 7393,
      "ĠHe": 7394,
      "separator": 7395,
      "lev": 7396,
      "ĠUP": 7397,
      "Ñĥ": 7398,
      "FOR": 7399,
      "Release": 7400,
      "SM": 7401,
      "ĠPlease": 7402,
      "HEADER": 7403,
      "history": 7404,
      "ĠContexts": 7405,
      "Ġwho": 7406,
      "Bool": 7407,
      "ĠJAXB": 7408,
      "Ġ36": 7409,
      "comb": 7410,
      "ĠendsWith": 7411,
      "Ġdeclar": 7412,
      "Infos": 7413,
      "RENT": 7414,
      "Ġmysql": 7415,
      "ĠNorm": 7416,
      "Ġ\"(": 7417,
      "GLOB": 7418,
      "Utility": 7419,
      "Ġartifact": 7420,
      "serts": 7421,
      "Bro": 7422,
      "Ġcri": 7423,
      "ociate": 7424,
      "CUR": 7425,
      "rand": 7426,
      "Ġability": 7427,
      "Ġiteritems": 7428,
      "listener": 7429,
      "pdf": 7430,
      "Health": 7431,
      "Gra": 7432,
      "Ġweekday": 7433,
      "Ġqueries": 7434,
      "Ġdeprecated": 7435,
      "ĠVis": 7436,
      "dataset": 7437,
      "Ġanchor": 7438,
      "Ġchecksum": 7439,
      "Ġreceive": 7440,
      "ĠClosure": 7441,
      "Ġprice": 7442,
      "Ġparticular": 7443,
      "States": 7444,
      "Ġcollections": 7445,
      "')": 7446,
      "submit": 7447,
      "Ġchecked": 7448,
      "prob": 7449,
      "contact": 7450,
      "ENCE": 7451,
      "tegration": 7452,
      "ench": 7453,
      "Segments": 7454,
      "Fld": 7455,
      "########": 7456,
      "CLI": 7457,
      "ĠnotNull": 7458,
      "ading": 7459,
      "ĠFields": 7460,
      "Ġunderlying": 7461,
      "Ġpow": 7462,
      "ĠAfter": 7463,
      "ĠLists": 7464,
      "enance": 7465,
      "XX": 7466,
      "[]": 7467,
      "ov": 7468,
      "Ġfilesystem": 7469,
      "tuple": 7470,
      "Ġpull": 7471,
      "ĠgetSource": 7472,
      "tail": 7473,
      "ĠAcce": 7474,
      "amera": 7475,
      "ĠBind": 7476,
      "Ġserial": 7477,
      "ĠEnvironment": 7478,
      "Routes": 7479,
      "dump": 7480,
      "ĠChild": 7481,
      "Ġsubnet": 7482,
      "Ġobtain": 7483,
      "ĠSetContext": 7484,
      "onts": 7485,
      "dp": 7486,
      "LEMENT": 7487,
      "Ġunlock": 7488,
      "Jobs": 7489,
      "secure": 7490,
      "MOD": 7491,
      "Entities": 7492,
      "Ġmanaged": 7493,
      "Ġxy": 7494,
      "Ġpg": 7495,
      "Logging": 7496,
      "ĠgetBase": 7497,
      "Mappings": 7498,
      "Ġdeserialize": 7499,
      "Weight": 7500,
      "Master": 7501,
      "character": 7502,
      "Pad": 7503,
      "serializer": 7504,
      "ros": 7505,
      "Ġaltern": 7506,
      "rollers": 7507,
      "ĠProxy": 7508,
      "Ġappro": 7509,
      "calcul": 7510,
      "Begin": 7511,
      "Ġcounts": 7512,
      "Install": 7513,
      "Threshold": 7514,
      "Ġcoord": 7515,
      "ynchronous": 7516,
      "worker": 7517,
      "Ġnumeric": 7518,
      "aa": 7519,
      "08": 7520,
      "ĠHE": 7521,
      "Ġparents": 7522,
      "Ġassume": 7523,
      "mon": 7524,
      "Patch": 7525,
      "Blank": 7526,
      "coe": 7527,
      "itelist": 7528,
      "ĠgetPre": 7529,
      "PRI": 7530,
      "cue": 7531,
      "Ġdc": 7532,
      "sessment": 7533,
      "Ġcross": 7534,
      "ttl": 7535,
      "Ġsmall": 7536,
      "Ġtouch": 7537,
      "reat": 7538,
      "zero": 7539,
      "ĠkeySet": 7540,
      "Ġpin": 7541,
      "assoc": 7542,
      "ĠMock": 7543,
      "Ġzoom": 7544,
      "Ġdelegate": 7545,
      "ĠCSS": 7546,
      "ertificates": 7547,
      "ĠDebugf": 7548,
      "Ġdistribution": 7549,
      "Ġwrites": 7550,
      "Ġ';'": 7551,
      "Src": 7552,
      "Ġvertices": 7553,
      "vector": 7554,
      "riend": 7555,
      "Chars": 7556,
      "Ġlb": 7557,
      "ĠTypes": 7558,
      "Tile": 7559,
      "Include": 7560,
      "ãĢĤ": 7561,
      "ĠResponseWriter": 7562,
      "Ġthrown": 7563,
      "Supported": 7564,
      "ĠInsert": 7565,
      "configs": 7566,
      "ĠPrivate": 7567,
      "verity": 7568,
      "lookup": 7569,
      "Ġclock": 7570,
      "props": 7571,
      "[\\": 7572,
      "oper": 7573,
      "ClassLoader": 7574,
      "Ġoverwrite": 7575,
      "ĠOtherwise": 7576,
      "Foreign": 7577,
      "steps": 7578,
      "ä»¶": 7579,
      "Skip": 7580,
      ".\\": 7581,
      "Ġeq": 7582,
      "ĠBasic": 7583,
      "lue": 7584,
      "Ġprior": 7585,
      "Ġcallbacks": 7586,
      "ĠqPath": 7587,
      "ĠFILE": 7588,
      "Ġlegend": 7589,
      "Ġbuilt": 7590,
      "Ġpolygon": 7591,
      "ĠScript": 7592,
      "DED": 7593,
      "Ġautogenerated": 7594,
      "Using": 7595,
      "ents": 7596,
      "Ġgene": 7597,
      "ĠShow": 7598,
      "Ġlineno": 7599,
      "corder": 7600,
      "gate": 7601,
      "entities": 7602,
      "racts": 7603,
      "Ġprompt": 7604,
      "variant": 7605,
      "qb": 7606,
      "Encryption": 7607,
      "Ġff": 7608,
      "]+)": 7609,
      "ĠIdentity": 7610,
      "ĠTABLE": 7611,
      "____": 7612,
      "Theme": 7613,
      "Lang": 7614,
      "Pk": 7615,
      "click": 7616,
      "ĠsetText": 7617,
      "26": 7618,
      "sym": 7619,
      "phpcs": 7620,
      "Ġcrypto": 7621,
      "LOAD": 7622,
      "Week": 7623,
      "Ġels": 7624,
      "ĠScan": 7625,
      "usted": 7626,
      "ĠWriteString": 7627,
      "Ġexplicit": 7628,
      "Ġdevices": 7629,
      "ĠInv": 7630,
      "ĠTimeout": 7631,
      "Ġct": 7632,
      "Ġcontact": 7633,
      "ĠSO": 7634,
      "ĠPush": 7635,
      "align": 7636,
      "Ġfamily": 7637,
      "strument": 7638,
      "oring": 7639,
      "Dependency": 7640,
      "ĠApplyOptions": 7641,
      "fact": 7642,
      "warn": 7643,
      "36": 7644,
      "ĠSER": 7645,
      "ivot": 7646,
      "201": 7647,
      "Ġang": 7648,
      "LAY": 7649,
      "Ġam": 7650,
      "Ġasc": 7651,
      "gy": 7652,
      "ĠRange": 7653,
      "Ġls": 7654,
      "ĠgetHeader": 7655,
      "Ġincoming": 7656,
      "Old": 7657,
      "Poly": 7658,
      "plan": 7659,
      "Ġsi": 7660,
      "Ġfreq": 7661,
      "Lat": 7662,
      "Processing": 7663,
      "Ġassertions": 7664,
      "visible": 7665,
      "Ġscanner": 7666,
      "unic": 7667,
      "Ġjcas": 7668,
      "Break": 7669,
      "Ġ\"&": 7670,
      "Ġfw": 7671,
      "Ġconfirm": 7672,
      "ĠReturned": 7673,
      "Ġklog": 7674,
      "Final": 7675,
      "dc": 7676,
      "ucts": 7677,
      "Ġpositive": 7678,
      "Ġtrunc": 7679,
      "Ġ'.$": 7680,
      "Ġcreation": 7681,
      "border": 7682,
      "Ġmv": 7683,
      "Ġdy": 7684,
      "ek": 7685,
      "ĠprintStackTrace": 7686,
      "FUNCTION": 7687,
      "VAR": 7688,
      "ĠBean": 7689,
      "VEL": 7690,
      "high": 7691,
      "Ġtax": 7692,
      "ĳĦ": 7693,
      "ðĳĦ": 7694,
      "ĠgetError": 7695,
      "ĠLoads": 7696,
      "example": 7697,
      "Ġproblem": 7698,
      "TABLE": 7699,
      "inite": 7700,
      "COMP": 7701,
      "bot": 7702,
      "Reply": 7703,
      "Ġsigned": 7704,
      "ĠNonNull": 7705,
      "Article": 7706,
      "UST": 7707,
      "agger": 7708,
      "Ġautomatically": 7709,
      "ĠsetData": 7710,
      "Ġincre": 7711,
      "ely": 7712,
      "Ġtrig": 7713,
      "refresh": 7714,
      "å®ļ": 7715,
      "Ġnn": 7716,
      "Sheet": 7717,
      "ĠCallback": 7718,
      "times": 7719,
      "letion": 7720,
      "Ġassignment": 7721,
      "scall": 7722,
      "ĠQt": 7723,
      "family": 7724,
      "Ġtensor": 7725,
      "instances": 7726,
      "ĠDire": 7727,
      "Ġrgb": 7728,
      "artbe": 7729,
      "Ġmeth": 7730,
      "ĠisN": 7731,
      "mform": 7732,
      "Ġobs": 7733,
      "userId": 7734,
      "Cfg": 7735,
      "Monitor": 7736,
      "EObject": 7737,
      "Ġisn": 7738,
      "Ġapplied": 7739,
      "Ġrespond": 7740,
      "ĠJOIN": 7741,
      "hr": 7742,
      "ĠChain": 7743,
      "ĠByteArray": 7744,
      "Ġ'(": 7745,
      "ainers": 7746,
      "Generated": 7747,
      "Ġinstanti": 7748,
      "SD": 7749,
      "Ġresize": 7750,
      "ĠNe": 7751,
      "arrow": 7752,
      "ventory": 7753,
      "Strings": 7754,
      "olr": 7755,
      "ĠĠĠĠĠĠĠĠĠĠĠĠĠ": 7756,
      "Ġterms": 7757,
      "HO": 7758,
      "ĠJSONObject": 7759,
      "Ġfinished": 7760,
      "setup": 7761,
      "war": 7762,
      "GN": 7763,
      "Print": 7764,
      "ĠMode": 7765,
      "ĠEC": 7766,
      "ĠTry": 7767,
      "TypeName": 7768,
      "Ġcapacity": 7769,
      "Ġgetter": 7770,
      "æĸĩ": 7771,
      "ĠATT": 7772,
      "ĠEnum": 7773,
      "WORD": 7774,
      "Ġmis": 7775,
      "Cols": 7776,
      "START": 7777,
      "ired": 7778,
      "ral": 7779,
      "udo": 7780,
      "undles": 7781,
      "Decoder": 7782,
      "Ġencoder": 7783,
      "Ġbounding": 7784,
      "ĠResources": 7785,
      "ä½": 7786,
      "ĠInst": 7787,
      "ĠRandom": 7788,
      "ffected": 7789,
      "Registration": 7790,
      "Cancel": 7791,
      "ĠEObject": 7792,
      "Shared": 7793,
      ".$": 7794,
      "Ġrhs": 7795,
      "Ġhosts": 7796,
      "AST": 7797,
      "Ġphi": 7798,
      "resse": 7799,
      "Shape": 7800,
      "versed": 7801,
      "video": 7802,
      "STATE": 7803,
      "89": 7804,
      "Screen": 7805,
      "rant": 7806,
      "Assignable": 7807,
      "Assignment": 7808,
      "ĠUpload": 7809,
      "ĠSSL": 7810,
      "Ġeps": 7811,
      "andshake": 7812,
      "wall": 7813,
      "ĠSuch": 7814,
      "ĠDown": 7815,
      "orph": 7816,
      "Ġ'`": 7817,
      "Ġbook": 7818,
      "ĠStandard": 7819,
      "rot": 7820,
      "allen": 7821,
      "Organization": 7822,
      "Ã©": 7823,
      "chemas": 7824,
      "backup": 7825,
      "rac": 7826,
      "ae": 7827,
      "äº": 7828,
      "ORDER": 7829,
      "break": 7830,
      "Ġdue": 7831,
      "ĠSET": 7832,
      "TAG": 7833,
      "ĠparentNode": 7834,
      "ĠNotification": 7835,
      "odle": 7836,
      "GIN": 7837,
      "inity": 7838,
      "ĠTerm": 7839,
      "ĠcurrentTimeMillis": 7840,
      "ĠisNull": 7841,
      "encoded": 7842,
      "Ġgame": 7843,
      "urable": 7844,
      "pg": 7845,
      "Transition": 7846,
      "ident": 7847,
      "ĠscalarNode": 7848,
      "Ġinterpo": 7849,
      "27": 7850,
      "aches": 7851,
      "filepath": 7852,
      "ContentType": 7853,
      "AsString": 7854,
      "ĠSecond": 7855,
      "Convert": 7856,
      "Ġpm": 7857,
      "Dependencies": 7858,
      "mpling": 7859,
      "...'": 7860,
      "aginator": 7861,
      "ĠgetIndex": 7862,
      "inct": 7863,
      "Ġaudio": 7864,
      "Without": 7865,
      "44": 7866,
      "Ġpower": 7867,
      "Ops": 7868,
      "ĠnodeName": 7869,
      "Ġmid": 7870,
      "ez": 7871,
      "RPC": 7872,
      "Priority": 7873,
      "IGHT": 7874,
      "._": 7875,
      "Ġreadable": 7876,
      "aper": 7877,
      "ĠBinary": 7878,
      "ĠgetInt": 7879,
      "ĠDir": 7880,
      "ournal": 7881,
      "Ġfallback": 7882,
      "ĠgetChild": 7883,
      "origin": 7884,
      "Abstract": 7885,
      "identity": 7886,
      "ongs": 7887,
      "DataSource": 7888,
      "Opt": 7889,
      "registry": 7890,
      "gable": 7891,
      "ĠProc": 7892,
      "Ġtxn": 7893,
      "ĠserviceCallback": 7894,
      "unce": 7895,
      "Ġrw": 7896,
      "FE": 7897,
      "pay": 7898,
      "ĠgetJ": 7899,
      "Ġcent": 7900,
      "ĠgetItem": 7901,
      "TS": 7902,
      "UMN": 7903,
      "lications": 7904,
      "posal": 7905,
      "Ġdial": 7906,
      "ĠEND": 7907,
      "ĠgetSimple": 7908,
      "ĠconvertTo": 7909,
      "Ġinc": 7910,
      "Original": 7911,
      "Ġrescue": 7912,
      "ĠResolve": 7913,
      "win": 7914,
      "warning": 7915,
      "Ġdecorator": 7916,
      "rypt": 7917,
      "Ġservers": 7918,
      "Rest": 7919,
      "ĠContains": 7920,
      "Ġ\"]": 7921,
      "Ġmx": 7922,
      "ons": 7923,
      "Ġalert": 7924,
      "ĠBigDecimal": 7925,
      "Ġminutes": 7926,
      "---": 7927,
      "Ġintval": 7928,
      "Ġatomic": 7929,
      "Configs": 7930,
      "ssue": 7931,
      "ĠFeature": 7932,
      "comments": 7933,
      "ios": 7934,
      "Ġcopi": 7935,
      "Ġencrypted": 7936,
      "ĠPerform": 7937,
      "watch": 7938,
      "Ġ'('": 7939,
      "Ġxs": 7940,
      "Ġprocessor": 7941,
      "AMETER": 7942,
      "OW": 7943,
      "ĠME": 7944,
      "Ġpositions": 7945,
      "ĠOnly": 7946,
      "twig": 7947,
      "Ġri": 7948,
      "ĠEClass": 7949,
      "Ġupd": 7950,
      "Ġ[%": 7951,
      "Ġranges": 7952,
      "cussion": 7953,
      "rupt": 7954,
      "Tracker": 7955,
      "phpcsFile": 7956,
      "å¯": 7957,
      "Ġdirectories": 7958,
      "cannot": 7959,
      "Ġstrtoupper": 7960,
      "Ġawt": 7961,
      "ĠHTTPMethod": 7962,
      "Ġtransfer": 7963,
      "ĠStat": 7964,
      "Ġcategories": 7965,
      "zure": 7966,
      "PARAM": 7967,
      "ĠgetG": 7968,
      "Ġabort": 7969,
      "Ġsuccessful": 7970,
      "ĠDetermine": 7971,
      "alizable": 7972,
      "Ġappends": 7973,
      "Modules": 7974,
      "ASH": 7975,
      "ggle": 7976,
      "Allow": 7977,
      "Ġ17": 7978,
      "Ġlocales": 7979,
      "([^": 7980,
      "Direction": 7981,
      "por": 7982,
      "Evalu": 7983,
      "activity": 7984,
      "ĠDeepCopyInto": 7985,
      "CAL": 7986,
      "Syntax": 7987,
      "arb": 7988,
      "ght": 7989,
      "Ġcompatible": 7990,
      "pear": 7991,
      "Ġwp": 7992,
      "Ġtp": 7993,
      "Stage": 7994,
      "Ġ\"_\"": 7995,
      "Ġiou": 7996,
      "ĠgetDec": 7997,
      "Defined": 7998,
      "\\\"\"": 7999,
      "Ġstructs": 8000,
      "Ġdecor": 8001,
      "IV": 8002,
      "Ġremain": 8003,
      "Ġforeign": 8004,
      "Ġdigits": 8005,
      "Shop": 8006,
      "ClientExecution": 8007,
      "ĠgetRepository": 8008,
      "Ġwriting": 8009,
      "enum": 8010,
      "ĠZend": 8011,
      "ĠParam": 8012,
      "Attrs": 8013,
      "Unsupported": 8014,
      "Ġbootstrap": 8015,
      "ä¸Ģ": 8016,
      "fast": 8017,
      "Decode": 8018,
      "Put": 8019,
      "ĠbeforeClientExecution": 8020,
      "platform": 8021,
      "Ġ\"\\\\": 8022,
      "LIN": 8023,
      "ĠBuilds": 8024,
      "Ġ-----------------------------------------------------------------": 8025,
      "Used": 8026,
      "Ġfocus": 8027,
      "Ġrecipient": 8028,
      "Ġextended": 8029,
      "auge": 8030,
      "Scaling": 8031,
      "ĠSc": 8032,
      "MB": 8033,
      "Ġparallel": 8034,
      "Ġmight": 8035,
      "sTo": 8036,
      "Angle": 8037,
      "Ġdecoded": 8038,
      "authorized": 8039,
      "Ġexports": 8040,
      "Indent": 8041,
      "Ġ404": 8042,
      "ĠgrammarAccess": 8043,
      "Ġadding": 8044,
      "Ġxpath": 8045,
      "aintenance": 8046,
      "Ġmouse": 8047,
      "Ġpoll": 8048,
      "Pay": 8049,
      "Ġix": 8050,
      "aving": 8051,
      "notated": 8052,
      "clear": 8053,
      "ENER": 8054,
      "Find": 8055,
      "tour": 8056,
      "ĠReg": 8057,
      "Ġputs": 8058,
      "Ġtemporary": 8059,
      "Ġsid": 8060,
      "Feed": 8061,
      "Promise": 8062,
      "Hub": 8063,
      "Ġpatterns": 8064,
      "Ġcontract": 8065,
      "enario": 8066,
      "Ġeven": 8067,
      "Ġurls": 8068,
      "Ġdeferred": 8069,
      "Qualified": 8070,
      "alformed": 8071,
      "ĠStatement": 8072,
      "Replication": 8073,
      "ĠConn": 8074,
      "tives": 8075,
      "ARD": 8076,
      "Ġez": 8077,
      "Templates": 8078,
      "æĹ": 8079,
      "ĠServlet": 8080,
      "Require": 8081,
      "Person": 8082,
      "attachment": 8083,
      "Ġcid": 8084,
      "Ġ\"@": 8085,
      "wards": 8086,
      "æį®": 8087,
      "scalar": 8088,
      "ĠHTTPPath": 8089,
      "TOKEN": 8090,
      "Reason": 8091,
      "Ġretrie": 8092,
      "DOM": 8093,
      "ĠgetVersion": 8094,
      "Ġsel": 8095,
      "Ġmux": 8096,
      "Ġ(\"": 8097,
      "lave": 8098,
      "ĠStrings": 8099,
      "rouped": 8100,
      "Named": 8101,
      "Ġol": 8102,
      "uples": 8103,
      "USE": 8104,
      "ĠFace": 8105,
      "ĠStd": 8106,
      "Ġpeek": 8107,
      "[:": 8108,
      "tk": 8109,
      "styles": 8110,
      "Ġmargin": 8111,
      "Ġmaybe": 8112,
      "ĠCalculate": 8113,
      "Ġucfirst": 8114,
      "aching": 8115,
      "Ġcost": 8116,
      "Ġta": 8117,
      "dst": 8118,
      "imiter": 8119,
      "Ġshare": 8120,
      "AML": 8121,
      "ĠCodes": 8122,
      "Ġaggregate": 8123,
      "usage": 8124,
      "Workflow": 8125,
      "tasks": 8126,
      "persist": 8127,
      "ĠClear": 8128,
      "phone": 8129,
      "ĠServiceFuture": 8130,
      "ĠCONT": 8131,
      "timezone": 8132,
      "Ġdocumentation": 8133,
      "ĠGeometry": 8134,
      "ĠEvalu": 8135,
      "lacklist": 8136,
      "ĠRUnlock": 8137,
      "stitution": 8138,
      "Ġattempts": 8139,
      "Accessor": 8140,
      "ĠAL": 8141,
      "atar": 8142,
      "ĠIOError": 8143,
      "Received": 8144,
      "Drop": 8145,
      "Ġ\\$": 8146,
      "LIMIT": 8147,
      "IR": 8148,
      "ĠgetN": 8149,
      "Ġrr": 8150,
      "NotExist": 8151,
      "nost": 8152,
      "ette": 8153,
      "Ġassigned": 8154,
      "Ġinte": 8155,
      "Ġ))": 8156,
      "Ġfc": 8157,
      "ĠgetBytes": 8158,
      "exit": 8159,
      "Ġpretty": 8160,
      "UPDATE": 8161,
      "itional": 8162,
      "ypes": 8163,
      "Ġhdr": 8164,
      "Router": 8165,
      "Ġruns": 8166,
      "59": 8167,
      "ird": 8168,
      "keyword": 8169,
      "Sig": 8170,
      "ordinates": 8171,
      "artbeat": 8172,
      "06": 8173,
      "ingerprint": 8174,
      "Ġstill": 8175,
      "ä¸ª": 8176,
      "Transformer": 8177,
      "ĠnextPageLink": 8178,
      "ctories": 8179,
      "Ġastype": 8180,
      "jector": 8181,
      "izations": 8182,
      "Username": 8183,
      "Ġregular": 8184,
      "Ġbg": 8185,
      "aming": 8186,
      "Platform": 8187,
      "aff": 8188,
      "shell": 8189,
      "igrate": 8190,
      "ĠAllow": 8191,
      "Sent": 8192,
      "ĠTimestamp": 8193,
      "ANGE": 8194,
      "ĠSecret": 8195,
      "ĠIFC": 8196,
      "MAP": 8197,
      "Ġliteral": 8198,
      "servers": 8199,
      "reason": 8200,
      "ĠMon": 8201,
      "Chart": 8202,
      "cognition": 8203,
      "detail": 8204,
      "lec": 8205,
      "ĠtheEObject": 8206,
      "Ġioutil": 8207,
      "loss": 8208,
      "recursive": 8209,
      "ĠCriteria": 8210,
      "execute": 8211,
      "BASE": 8212,
      "ĠENT": 8213,
      "Program": 8214,
      "Subnet": 8215,
      "ĠgetAbsolute": 8216,
      "Ġsimp": 8217,
      "SUB": 8218,
      "relative": 8219,
      "Ġndarray": 8220,
      "Ġhandles": 8221,
      "running": 8222,
      "ĠVerify": 8223,
      "Ġpie": 8224,
      "CACHE": 8225,
      "Ġcond": 8226,
      "irror": 8227,
      "Ġ(!": 8228,
      "dims": 8229,
      "ColumnName": 8230,
      "threshold": 8231,
      "assets": 8232,
      "Ġcomplex": 8233,
      "ĠJAXBElement": 8234,
      "asis": 8235,
      "ĠPATH": 8236,
      "fol": 8237,
      "aggreg": 8238,
      "ĠTAG": 8239,
      "Alpha": 8240,
      "ĠWrites": 8241,
      "Ġnv": 8242,
      "pod": 8243,
      "ga": 8244,
      "Ġboot": 8245,
      "formatter": 8246,
      "ĠCO": 8247,
      "placeholder": 8248,
      "Ġceil": 8249,
      "ĠUsed": 8250,
      "ĠSequence": 8251,
      "days": 8252,
      "Ġoccurred": 8253,
      "random": 8254,
      "Ġcontained": 8255,
      "Errs": 8256,
      "ĠSIG": 8257,
      "slot": 8258,
      "Ġrouting": 8259,
      "Ġutf": 8260,
      "Ġunion": 8261,
      "Ġspecification": 8262,
      "sources": 8263,
      "Ġprevent": 8264,
      "76": 8265,
      "edure": 8266,
      "æĺ": 8267,
      "Ġdecimal": 8268,
      "GLOBALS": 8269,
      "Ġphone": 8270,
      "Ġinterfaces": 8271,
      "TagName": 8272,
      "We": 8273,
      "Ġcd": 8274,
      "ĠisIn": 8275,
      "ĠAv": 8276,
      "Follow": 8277,
      "radi": 8278,
      "ĠPr": 8279,
      "background": 8280,
      "done": 8281,
      "Credential": 8282,
      "runtime": 8283,
      "Ġloading": 8284,
      "coords": 8285,
      "Home": 8286,
      "}_": 8287,
      "Ġstatistics": 8288,
      "credentials": 8289,
      "ĠVERSION": 8290,
      "[\"": 8291,
      "ĠTH": 8292,
      "Leg": 8293,
      "ĠIDs": 8294,
      "Please": 8295,
      "SHA": 8296,
      "Ġcpu": 8297,
      "erts": 8298,
      "Ġvisitor": 8299,
      "ĠgetWidth": 8300,
      "ĠAN": 8301,
      "Ġresolution": 8302,
      "Multiple": 8303,
      "GROUP": 8304,
      "ĠUnit": 8305,
      "Ġ'\\\\": 8306,
      "Den": 8307,
      "Ġencrypt": 8308,
      "Ġaliases": 8309,
      "Background": 8310,
      "ience": 8311,
      "ĠEqual": 8312,
      "Ġiteration": 8313,
      "Ġaccepts": 8314,
      "Ġask": 8315,
      "Ġpriv": 8316,
      "Ġassociation": 8317,
      "Ġattrib": 8318,
      "ĠnewLine": 8319,
      "ERY": 8320,
      "verify": 8321,
      "ĠgetHost": 8322,
      "ĠAdmin": 8323,
      "Ġsimilar": 8324,
      "ĠZip": 8325,
      "metrics": 8326,
      "cf": 8327,
      "allery": 8328,
      "workspace": 8329,
      "ĠRece": 8330,
      "ĠModify": 8331,
      "Ratio": 8332,
      "Ġexecuted": 8333,
      "Ġ');": 8334,
      "Ġttl": 8335,
      "ĠOrg": 8336,
      "ĠtagName": 8337,
      "Validate": 8338,
      "Ġ'>'": 8339,
      "CATION": 8340,
      "Ġ'['": 8341,
      "ĠgetTarget": 8342,
      "ĠFIL": 8343,
      "Ġuni": 8344,
      "Ġupgrade": 8345,
      "ĠVM": 8346,
      "Center": 8347,
      "Escape": 8348,
      "ffective": 8349,
      "ĠCap": 8350,
      "ĠLimit": 8351,
      "Ġequivalent": 8352,
      "å¼": 8353,
      "ĠVAR": 8354,
      "ĠNewErrParamRequired": 8355,
      "ĠALL": 8356,
      "References": 8357,
      "channels": 8358,
      "ĠgetCache": 8359,
      "readcr": 8360,
      "NextToken": 8361,
      "Ġwg": 8362,
      "padding": 8363,
      "ĠNum": 8364,
      "Ready": 8365,
      "ĠisAssignable": 8366,
      "vendor": 8367,
      "Div": 8368,
      "etter": 8369,
      "ĠDeployment": 8370,
      "segments": 8371,
      "Ġwaiting": 8372,
      "KNO": 8373,
      "ARRAY": 8374,
      "GroupId": 8375,
      "ĠFinds": 8376,
      "Pipeline": 8377,
      "Ġimmediate": 8378,
      "Policies": 8379,
      "Ġblank": 8380,
      "STATUS": 8381,
      "disabled": 8382,
      "Statistics": 8383,
      "cestor": 8384,
      "MM": 8385,
      "initial": 8386,
      "tili": 8387,
      "Ġelsif": 8388,
      "ĠgetSimpleName": 8389,
      "XY": 8390,
      "Ðº": 8391,
      "Ġ'\\'": 8392,
      "Ġmigration": 8393,
      "ĠTLS": 8394,
      "Ġhealth": 8395,
      "external": 8396,
      "ĠWarn": 8397,
      "Ġplayer": 8398,
      "ĠDELETE": 8399,
      "ä¸º": 8400,
      "ASS": 8401,
      "Wrap": 8402,
      "sys": 8403,
      "Ġestim": 8404,
      "Pop": 8405,
      "inc": 8406,
      "Ġhours": 8407,
      "Ġanaly": 8408,
      "ĠFrame": 8409,
      "Specification": 8410,
      "Ġconsidered": 8411,
      "yaml": 8412,
      "Ġintersection": 8413,
      "Ġdifference": 8414,
      "ĠExecution": 8415,
      "Added": 8416,
      "ĠMsg": 8417,
      "Pane": 8418,
      "Pending": 8419,
      "ĠasList": 8420,
      "Ġswap": 8421,
      "Radi": 8422,
      "Ġnonce": 8423,
      "descri": 8424,
      "sep": 8425,
      "31": 8426,
      "Ġsections": 8427,
      "ĠRLock": 8428,
      "LD": 8429,
      "backend": 8430,
      "resolved": 8431,
      "ĠPerforms": 8432,
      "Ġeffect": 8433,
      "Ġattached": 8434,
      "Models": 8435,
      "ĠProduct": 8436,
      "ĠREST": 8437,
      "Ġclause": 8438,
      "åŃĹ": 8439,
      "RM": 8440,
      "Super": 8441,
      "ĠSymbol": 8442,
      "rift": 8443,
      "ribs": 8444,
      "Predicate": 8445,
      "simple": 8446,
      "ĠSu": 8447,
      "Basic": 8448,
      "bus": 8449,
      "Register": 8450,
      "Ġhit": 8451,
      "ĠDisplay": 8452,
      "unded": 8453,
      "Conditions": 8454,
      "())": 8455,
      "going": 8456,
      "coun": 8457,
      "editor": 8458,
      "Ġratio": 8459,
      "ĠOrdered": 8460,
      "ĠgridBagConstraints": 8461,
      "Dimension": 8462,
      "Ġunlink": 8463,
      "Features": 8464,
      "achments": 8465,
      "Ġlater": 8466,
      "Ġchat": 8467,
      "Ġ']'": 8468,
      "Ġregexp": 8469,
      "Ġèİ·åıĸ": 8470,
      "Ġsl": 8471,
      "Ñı": 8472,
      "ji": 8473,
      "choice": 8474,
      "ĠgetResult": 8475,
      "Ġscheduler": 8476,
      "ittle": 8477,
      "queryBuilder": 8478,
      "Ġmaps": 8479,
      "esis": 8480,
      "NODE": 8481,
      "ĠIPv": 8482,
      "Finder": 8483,
      "ATTRI": 8484,
      "ĠPair": 8485,
      "Ġnc": 8486,
      "topic": 8487,
      "unnel": 8488,
      "ĠDel": 8489,
      "Ġrepr": 8490,
      "Ġdeveloper": 8491,
      "MESSAGE": 8492,
      "tas": 8493,
      "Ġfh": 8494,
      "Ġendpoints": 8495,
      "percent": 8496,
      "ĠSum": 8497,
      "Scheme": 8498,
      "Ġsetdefault": 8499,
      "versions": 8500,
      "np": 8501,
      "ĠgetStart": 8502,
      "NULL": 8503,
      "ĠNet": 8504,
      "ServerError": 8505,
      "Ġreload": 8506,
      "Ġkeywords": 8507,
      "allenge": 8508,
      "Ġcompress": 8509,
      "fl": 8510,
      "Ġgettype": 8511,
      "fmt": 8512,
      "Ġ('": 8513,
      "pointer": 8514,
      "oned": 8515,
      "once": 8516,
      "expire": 8517,
      "Ġduplicate": 8518,
      "vene": 8519,
      "Ġdaemon": 8520,
      "Ġcapture": 8521,
      "Ġcookies": 8522,
      "Indexes": 8523,
      "ipt": 8524,
      "ĠErrInvalidParams": 8525,
      "terms": 8526,
      "Ġthreads": 8527,
      "propertyName": 8528,
      "quent": 8529,
      "ascii": 8530,
      "ĠMy": 8531,
      "Hist": 8532,
      "ĠTop": 8533,
      "ĠCLI": 8534,
      "avel": 8535,
      "Ġexchange": 8536,
      "ĠGlobal": 8537,
      "ĠRegion": 8538,
      "Ġarraycopy": 8539,
      "Delivery": 8540,
      "Ġguess": 8541,
      "Ġisfile": 8542,
      "rono": 8543,
      "Implemented": 8544,
      "Other": 8545,
      "ĠPython": 8546,
      "ratio": 8547,
      "Ġov": 8548,
      "additional": 8549,
      "HashMap": 8550,
      "ippet": 8551,
      "compare": 8552,
      "colors": 8553,
      "cart": 8554,
      "Ġ128": 8555,
      "Ġweek": 8556,
      "Ġparses": 8557,
      "structs": 8558,
      "zen": 8559,
      "ĠDist": 8560,
      "Ġ[\"": 8561,
      "Ġsyscall": 8562,
      "Ok": 8563,
      "UD": 8564,
      "LOGGER": 8565,
      "Ġgeom": 8566,
      "cuit": 8567,
      "dot": 8568,
      "Customer": 8569,
      "Ġnl": 8570,
      "Ġtenant": 8571,
      "ĠsetType": 8572,
      "ĠstatusCode": 8573,
      "Ġrtrim": 8574,
      "Help": 8575,
      "Tw": 8576,
      "ĠCell": 8577,
      "Blocking": 8578,
      "article": 8579,
      "ĠnumberOf": 8580,
      "raf": 8581,
      "multiple": 8582,
      "Ġsess": 8583,
      "ĠgetPage": 8584,
      "ĠDb": 8585,
      "NonNull": 8586,
      "free": 8587,
      "Disabled": 8588,
      "Ġfails": 8589,
      "astic": 8590,
      "Ġdetail": 8591,
      "07": 8592,
      "matched": 8593,
      "kb": 8594,
      "SERT": 8595,
      "ĠcheckNotNull": 8596,
      "ĠEnable": 8597,
      "ĠRPC": 8598,
      "}{": 8599,
      "ĠgetElements": 8600,
      "Ġepoch": 8601,
      "Ġactor": 8602,
      "eval": 8603,
[...]
